{
  "version": "1.0",
  "truncation": null,
  "padding": null,
  "added_tokens": [
    {
      "id": 0,
      "special": true,
      "content": "<|endoftext|>",
      "single_word": false,
      "lstrip": false,
      "rstrip": false,
      "normalized": false
    }
  ],
  "normalizer": null,
  "pre_tokenizer": {
    "type": "ByteLevel",
    "add_prefix_space": false,
    "trim_offsets": true
  },
  "post_processor": {
    "type": "ByteLevel",
    "add_prefix_space": true,
    "trim_offsets": true
  },
  "decoder": {
    "type": "ByteLevel",
    "add_prefix_space": true,
    "trim_offsets": true
  },
  "model": {
    "type": "BPE",
    "dropout": null,
    "unk_token": null,
    "continuing_subword_prefix": null,
    "end_of_word_suffix": null,
    "fuse_unk": false,
    "vocab": {
      "<|endoftext|>": 0,
      "!": 1,
      "\"": 2,
      "#": 3,
      "$": 4,
      "%": 5,
      "&": 6,
      "'": 7,
      "(": 8,
      ")": 9,
      "*": 10,
      "+": 11,
      ",": 12,
      "-": 13,
      ".": 14,
      "/": 15,
      "0": 16,
      "1": 17,
      "2": 18,
      "3": 19,
      "4": 20,
      "5": 21,
      "6": 22,
      "7": 23,
      "8": 24,
      "9": 25,
      ":": 26,
      ";": 27,
      "<": 28,
      "=": 29,
      ">": 30,
      "?": 31,
      "@": 32,
      "A": 33,
      "B": 34,
      "C": 35,
      "D": 36,
      "E": 37,
      "F": 38,
      "G": 39,
      "H": 40,
      "I": 41,
      "J": 42,
      "K": 43,
      "L": 44,
      "M": 45,
      "N": 46,
      "O": 47,
      "P": 48,
      "Q": 49,
      "R": 50,
      "S": 51,
      "T": 52,
      "U": 53,
      "V": 54,
      "W": 55,
      "X": 56,
      "Y": 57,
      "Z": 58,
      "[": 59,
      "\\": 60,
      "]": 61,
      "^": 62,
      "_": 63,
      "`": 64,
      "a": 65,
      "b": 66,
      "c": 67,
      "d": 68,
      "e": 69,
      "f": 70,
      "g": 71,
      "h": 72,
      "i": 73,
      "j": 74,
      "k": 75,
      "l": 76,
      "m": 77,
      "n": 78,
      "o": 79,
      "p": 80,
      "q": 81,
      "r": 82,
      "s": 83,
      "t": 84,
      "u": 85,
      "v": 86,
      "w": 87,
      "x": 88,
      "y": 89,
      "z": 90,
      "{": 91,
      "|": 92,
      "}": 93,
      "~": 94,
      "¡": 95,
      "¢": 96,
      "£": 97,
      "¤": 98,
      "¥": 99,
      "¦": 100,
      "§": 101,
      "¨": 102,
      "©": 103,
      "ª": 104,
      "«": 105,
      "¬": 106,
      "®": 107,
      "¯": 108,
      "°": 109,
      "±": 110,
      "²": 111,
      "³": 112,
      "´": 113,
      "µ": 114,
      "¶": 115,
      "·": 116,
      "¸": 117,
      "¹": 118,
      "º": 119,
      "»": 120,
      "¼": 121,
      "½": 122,
      "¾": 123,
      "¿": 124,
      "À": 125,
      "Á": 126,
      "Â": 127,
      "Ã": 128,
      "Ä": 129,
      "Å": 130,
      "Æ": 131,
      "Ç": 132,
      "È": 133,
      "É": 134,
      "Ê": 135,
      "Ë": 136,
      "Ì": 137,
      "Í": 138,
      "Î": 139,
      "Ï": 140,
      "Ð": 141,
      "Ñ": 142,
      "Ò": 143,
      "Ó": 144,
      "Ô": 145,
      "Õ": 146,
      "Ö": 147,
      "×": 148,
      "Ø": 149,
      "Ù": 150,
      "Ú": 151,
      "Û": 152,
      "Ü": 153,
      "Ý": 154,
      "Þ": 155,
      "ß": 156,
      "à": 157,
      "á": 158,
      "â": 159,
      "ã": 160,
      "ä": 161,
      "å": 162,
      "æ": 163,
      "ç": 164,
      "è": 165,
      "é": 166,
      "ê": 167,
      "ë": 168,
      "ì": 169,
      "í": 170,
      "î": 171,
      "ï": 172,
      "ð": 173,
      "ñ": 174,
      "ò": 175,
      "ó": 176,
      "ô": 177,
      "õ": 178,
      "ö": 179,
      "÷": 180,
      "ø": 181,
      "ù": 182,
      "ú": 183,
      "û": 184,
      "ü": 185,
      "ý": 186,
      "þ": 187,
      "ÿ": 188,
      "Ā": 189,
      "ā": 190,
      "Ă": 191,
      "ă": 192,
      "Ą": 193,
      "ą": 194,
      "Ć": 195,
      "ć": 196,
      "Ĉ": 197,
      "ĉ": 198,
      "Ċ": 199,
      "ċ": 200,
      "Č": 201,
      "č": 202,
      "Ď": 203,
      "ď": 204,
      "Đ": 205,
      "đ": 206,
      "Ē": 207,
      "ē": 208,
      "Ĕ": 209,
      "ĕ": 210,
      "Ė": 211,
      "ė": 212,
      "Ę": 213,
      "ę": 214,
      "Ě": 215,
      "ě": 216,
      "Ĝ": 217,
      "ĝ": 218,
      "Ğ": 219,
      "ğ": 220,
      "Ġ": 221,
      "ġ": 222,
      "Ģ": 223,
      "ģ": 224,
      "Ĥ": 225,
      "ĥ": 226,
      "Ħ": 227,
      "ħ": 228,
      "Ĩ": 229,
      "ĩ": 230,
      "Ī": 231,
      "ī": 232,
      "Ĭ": 233,
      "ĭ": 234,
      "Į": 235,
      "į": 236,
      "İ": 237,
      "ı": 238,
      "Ĳ": 239,
      "ĳ": 240,
      "Ĵ": 241,
      "ĵ": 242,
      "Ķ": 243,
      "ķ": 244,
      "ĸ": 245,
      "Ĺ": 246,
      "ĺ": 247,
      "Ļ": 248,
      "ļ": 249,
      "Ľ": 250,
      "ľ": 251,
      "Ŀ": 252,
      "ŀ": 253,
      "Ł": 254,
      "ł": 255,
      "Ń": 256,
      "Ã¡": 257,
      "ea": 258,
      "Ġd": 259,
      "Ġl": 260,
      "ii": 261,
      "Ġg": 262,
      "uo": 263,
      "Ġm": 264,
      "Å¡": 265,
      "as": 266,
      "Ġs": 267,
      "ht": 268,
      "Ġj": 269,
      "Ġb": 270,
      "id": 271,
      "it": 272,
      "at": 273,
      "an": 274,
      "al": 275,
      "ĠĊ": 276,
      "Ġlea": 277,
      "Ġo": 278,
      "Äį": 279,
      "in": 280,
      "ie": 281,
      "hk": 282,
      "Ġja": 283,
      "Ġv": 284,
      "Ã¡l": 285,
      "Äĳ": 286,
      "is": 287,
      "us": 288,
      "dd": 289,
      "vv": 290,
      "aÅ¡": 291,
      "ll": 292,
      "aid": 293,
      "oa": 294,
      "et": 295,
      "Ã¡n": 296,
      "Ã¡r": 297,
      "tt": 298,
      "kk": 299,
      "gg": 300,
      "on": 301,
      "Ã¡i": 302,
      "Ġgo": 303,
      "ar": 304,
      "ag": 305,
      "er": 306,
      "Ġn": 307,
      "en": 308,
      "ah": 309,
      "ĠS": 310,
      "Ġr": 311,
      "ear": 312,
      "Ġleat": 313,
      "iid": 314,
      "Ã¡m": 315,
      "Å¾": 316,
      "ĠÄį": 317,
      "Ġa": 318,
      "vd": 319,
      "hte": 320,
      "ad": 321,
      "il": 322,
      "je": 323,
      "Ġh": 324,
      "ir": 325,
      "or": 326,
      "ĠD": 327,
      "bm": 328,
      "htt": 329,
      "Ġf": 330,
      "mm": 331,
      "Ã¡s": 332,
      "uor": 333,
      "ĠM": 334,
      "Ġea": 335,
      "Ġmu": 336,
      "ol": 337,
      "Ġahte": 338,
      "es": 339,
      "âĢ": 340,
      "am": 341,
      "kt": 342,
      "ai": 343,
      "all": 344,
      "iel": 345,
      "hkk": 346,
      "ÄįÄį": 347,
      "el": 348,
      "os": 349,
      "ut": 350,
      "uvv": 351,
      "ed": 352,
      "iv": 353,
      "og": 354,
      "ui": 355,
      "uv": 356,
      "Ġvuo": 357,
      "pp": 358,
      "Åĭ": 359,
      "ot": 360,
      "Ġgea": 361,
      "Ã¡Å¡": 362,
      "vuo": 363,
      "Ġmaid": 364,
      "ĠG": 365,
      "od": 366,
      "pm": 367,
      "un": 368,
      "Ã¡v": 369,
      "eg": 370,
      "Ã¡t": 371,
      "Ġii": 372,
      "ss": 373,
      "ĠN": 374,
      "âĢĵ": 375,
      "ra": 376,
      "Ã¡h": 377,
      "ei": 378,
      "Ġol": 379,
      "ĠsÃ¡": 380,
      "vtt": 381,
      "ĠB": 382,
      "ĠsÃ¡m": 383,
      "em": 384,
      "inn": 385,
      "ur": 386,
      "Ġgal": 387,
      "oh": 388,
      "Ġbea": 389,
      "ĠJ": 390,
      "ul": 391,
      "iin": 392,
      "ohk": 393,
      "uid": 394,
      "Ãģ": 395,
      "ge": 396,
      "Ġde": 397,
      "Ġ1": 398,
      "ddj": 399,
      "Ġnu": 400,
      "ÄĳÄĳ": 401,
      "Ã¡id": 402,
      "ast": 403,
      "Ġp": 404,
      "ĠL": 405,
      "nn": 406,
      "Ġdan": 407,
      "Ã¡d": 408,
      "bb": 409,
      "Ġguo": 410,
      "vdd": 411,
      "Ġboa": 412,
      "ĠA": 413,
      "hto": 414,
      "ih": 415,
      "Ġk": 416,
      "uh": 417,
      "ĠH": 418,
      "Ġmii": 419,
      "ĠO": 420,
      "im": 421,
      "ĠR": 422,
      "ej": 423,
      "aÄįÄį": 424,
      "ain": 425,
      "ĠK": 426,
      "Ġie": 427,
      "00": 428,
      "vuoÄĳ": 429,
      "Ġlei": 430,
      "Ġst": 431,
      "arg": 432,
      "ĠÅ¡": 433,
      "aga": 434,
      "ĠE": 435,
      "Ġdie": 436,
      "ĠÃ¡i": 437,
      "ĠSÃ¡m": 438,
      "uÅ¡": 439,
      "de": 440,
      "Å¾Å¾": 441,
      "eaddj": 442,
      "uin": 443,
      "ĠI": 444,
      "ĠÃ¡l": 445,
      "Ġ2": 446,
      "Ã¡g": 447,
      "st": 448,
      "hta": 449,
      "om": 450,
      "eh": 451,
      "earr": 452,
      "Ġdo": 453,
      "ass": 454,
      "oÅ¡": 455,
      "Ã¡ll": 456,
      "Ġda": 457,
      "ĠĠĊ": 458,
      "ivv": 459,
      "gi": 460,
      "ihk": 461,
      "uohk": 462,
      "ab": 463,
      "alaÅ¡": 464,
      "Ġson": 465,
      "ĠrÃ¡": 466,
      "Ġdat": 467,
      "Ġlohk": 468,
      "Ġovd": 469,
      "ĠdÃ¡l": 470,
      "Ġgu": 471,
      "ean": 472,
      "gga": 473,
      "sen": 474,
      "ĠF": 475,
      "ist": 476,
      "rr": 477,
      "Ġmuhto": 478,
      "Ġear": 479,
      "ĠdÃ¡n": 480,
      "Ġeai": 481,
      "Ġjo": 482,
      "eam": 483,
      "Ġmiel": 484,
      "Ġmuit": 485,
      "..": 486,
      "Ġolbm": 487,
      "tn": 488,
      "uvvon": 489,
      "Ġdoa": 490,
      "ig": 491,
      "ĠieÅ¾": 492,
      "ill": 493,
      "Âł": 494,
      "Ġ(": 495,
      "Ġman": 496,
      "Ġsu": 497,
      "ĠV": 498,
      "ala": 499,
      "ĠÃģ": 500,
      "ta": 501,
      "Ġbarg": 502,
      "Ġoah": 503,
      "Ġma": 504,
      "edi": 505,
      "Ġokt": 506,
      "cc": 507,
      "Ġgalg": 508,
      "ĠdÃ¡": 509,
      "ev": 510,
      "oj": 511,
      "ihkk": 512,
      "Ġbuor": 513,
      "edje": 514,
      "eal": 515,
      "eaddji": 516,
      "Ã¡ld": 517,
      "Ġjuo": 518,
      "um": 519,
      "Ã¡laÅ¡": 520,
      "te": 521,
      "tta": 522,
      "Ġbo": 523,
      "Ġnj": 524,
      "ĠT": 525,
      "Äĳih": 526,
      "Ġbir": 527,
      "kuv": 528,
      "ĠlohkÃ¡": 529,
      "ĠP": 530,
      "ĠsÃ¡htt": 531,
      "vdn": 532,
      "aÄįÄįat": 533,
      "aj": 534,
      "Ã¡Å¡Å¡": 535,
      "Ġoll": 536,
      "olaÅ¡": 537,
      "usa": 538,
      "ĠsÃ¡mi": 539,
      "ĠmÃ¡n": 540,
      "ov": 541,
      "Ġal": 542,
      "go": 543,
      "lla": 544,
      "ud": 545,
      "ja": 546,
      "ne": 547,
      "Ã¡st": 548,
      "Ġbuo": 549,
      "adj": 550,
      "Ġduo": 551,
      "hp": 552,
      "Ġe": 553,
      "ĠmÃ¡": 554,
      "add": 555,
      "ga": 556,
      "ĠÄįuo": 557,
      "ĠNor": 558,
      "Ġjagi": 559,
      "Ġdi": 560,
      "ĠearÃ¡": 561,
      "asa": 562,
      "Ġsii": 563,
      "ĠÃ¡Å¡Å¡": 564,
      "Ġoa": 565,
      "Ġovdd": 566,
      "kkÃ¡r": 567,
      "Ġpr": 568,
      "ik": 569,
      "guin": 570,
      "Ġovtt": 571,
      "re": 572,
      "dda": 573,
      "ĠieÅ¾as": 574,
      "uÅ¡Å¡": 575,
      "Ã¡hk": 576,
      "da": 577,
      "ĠhÃ¡l": 578,
      "Ġluo": 579,
      "sa": 580,
      "iide": 581,
      "ob": 582,
      "aide": 583,
      "Ġmielde": 584,
      "Ġstuor": 585,
      "dÃ¡i": 586,
      "ask": 587,
      "ĠÄįÃ¡": 588,
      "ĠÃ¡r": 589,
      "ĠoÄĳÄĳ": 590,
      "Ġbirra": 591,
      "pmi": 592,
      "Ġc": 593,
      "ĠdÃ¡r": 594,
      "ahit": 595,
      "ĠÅ¡add": 596,
      "Ġge": 597,
      "mÃ¡r": 598,
      "uovd": 599,
      "jj": 600,
      "Ġgiel": 601,
      "agea": 602,
      "vuoÄĳa": 603,
      "ĠÃ¡": 604,
      "Ġean": 605,
      "mma": 606,
      "Ġgeat": 607,
      "oga": 608,
      "ĠmaÅĭ": 609,
      "Ġfer": 610,
      "ggi": 611,
      "Ġt": 612,
      "uvnn": 613,
      "ĠsÃ¡meg": 614,
      "est": 615,
      "Ġlean": 616,
      "eah": 617,
      "Ã¡Å¾": 618,
      "Ġboaz": 619,
      "Ã¸": 620,
      "uvvo": 621,
      "vll": 622,
      "uÄĳ": 623,
      "ĠSÃ¡medi": 624,
      "Ġdadj": 625,
      "argg": 626,
      "jeh": 627,
      "Ġ-": 628,
      "innmÃ¡r": 629,
      "Ġmat": 630,
      "Ġer": 631,
      "sk": 632,
      "av": 633,
      "alle": 634,
      "ier": 635,
      "Ġbeaivv": 636,
      "ks": 637,
      "uol": 638,
      "and": 639,
      "Ġmo": 640,
      "Ġmuitala": 641,
      "olit": 642,
      "idit": 643,
      "ĠmaiddÃ¡i": 644,
      "Ã¡Å¡j": 645,
      "ĠdieÄĳ": 646,
      "ĠSon": 647,
      "Ã¡rÃ¡Å¡j": 648,
      "Ġsea": 649,
      "ba": 650,
      "Ã¡ikk": 651,
      "Ã¡hus": 652,
      "ahje": 653,
      "Ġledje": 654,
      "dj": 655,
      "kte": 656,
      "ĠSÃ¡mi": 657,
      "oav": 658,
      "stt": 659,
      "Ġleam": 660,
      "ĠduÅ¡Å¡": 661,
      "ĠgalgÃ¡": 662,
      "uovdagea": 663,
      "Ġvai": 664,
      "ĠvÃ¡ld": 665,
      "Ġgir": 666,
      "Ġnuor": 667,
      "iss": 668,
      "Ġdahje": 669,
      "Ġovdal": 670,
      "__": 671,
      "Ġgii": 672,
      "Ġdu": 673,
      "ĠgÃ¡": 674,
      "ppe": 675,
      "ĠMu": 676,
      "Ġgeah": 677,
      "Ġhui": 678,
      "itt": 679,
      "ĠoÄĳÄĳa": 680,
      "ÄĮ": 681,
      "ĠâĢĵ": 682,
      "Ġrie": 683,
      "ĠlÃ¡g": 684,
      "Ġokta": 685,
      "na": 686,
      "Ġbuot": 687,
      "ald": 688,
      "ahtt": 689,
      "kka": 690,
      "Ġjus": 691,
      "Ġoahp": 692,
      "ego": 693,
      "ĠleamaÅ¡": 694,
      "ult": 695,
      "odo": 696,
      "adit": 697,
      "idj": 698,
      "innmÃ¡rkk": 699,
      "Ġvel": 700,
      "oahp": 701,
      "Ġin": 702,
      "bmot": 703,
      "Ġ3": 704,
      "ĠĠ": 705,
      "kÄį": 706,
      "Äĳiheaddji": 707,
      "Ġoahpp": 708,
      "Ġgie": 709,
      "ĠsÃ¡httÃ¡": 710,
      "Ġboaht": 711,
      "la": 712,
      "Ġdoai": 713,
      "agas": 714,
      "ahk": 715,
      "ĠlÃ¡v": 716,
      "ĠÃ¡ig": 717,
      "ĠduÅ¡Å¡e": 718,
      "uovdageainn": 719,
      "ĠieÅ¡": 720,
      "Ġi": 721,
      "Ġgeav": 722,
      "earvv": 723,
      "Ġmearr": 724,
      "hc": 725,
      "vuohta": 726,
      "ell": 727,
      "Ġollu": 728,
      "Ġskuv": 729,
      "Ã¡ht": 730,
      "Ġdea": 731,
      "alit": 732,
      "att": 733,
      "Ġ19": 734,
      "Ã¡tt": 735,
      "unn": 736,
      "idn": 737,
      "ĠKÃ¡rÃ¡Å¡j": 738,
      "usat": 739,
      "ĠÄįÃ¡ll": 740,
      "Ġvuor": 741,
      "istt": 742,
      "Ġbi": 743,
      "Ġmin": 744,
      "allan": 745,
      "Ã¡hp": 746,
      "ĠdÃ¡id": 747,
      "pmel": 748,
      "Ġhea": 749,
      "avv": 750,
      "Ã¡la": 751,
      "ivÄįÄį": 752,
      "eami": 753,
      "kkas": 754,
      "kan": 755,
      "odat": 756,
      "Â«": 757,
      "Ġgos": 758,
      "Â»": 759,
      "....": 760,
      "Ġor": 761,
      "ama": 762,
      "Ġsin": 763,
      "uht": 764,
      "Ġgull": 765,
      "SÃ¡m": 766,
      "ĠsÃ¡megiel": 767,
      "allat": 768,
      "vva": 769,
      "oahkk": 770,
      "kki": 771,
      "dn": 772,
      "htte": 773,
      "ĠdadjÃ¡": 774,
      "Ġsis": 775,
      "Ġmun": 776,
      "Ġdaid": 777,
      "Ã¡nu": 778,
      "uohkan": 779,
      "ĠoaÅ¾Å¾": 780,
      "Ġfas": 781,
      "Ġalmm": 782,
      "earv": 783,
      "eapmi": 784,
      "Ġmie": 785,
      "Ġgil": 786,
      "ssa": 787,
      "ggas": 788,
      "oÅ¡t": 789,
      "Ġoai": 790,
      "Ġdahk": 791,
      "uom": 792,
      "ĠU": 793,
      "Ã¡ldd": 794,
      "Ġsihk": 795,
      "Ã¦": 796,
      "ĠLea": 797,
      "ĠÃ¡s": 798,
      "ĠÄįÃ¡jeh": 799,
      "ĠDan": 800,
      "ĠAn": 801,
      "ida": 802,
      "Ġeam": 803,
      "Ġvea": 804,
      "Ġruo": 805,
      "Ġbur": 806,
      "oai": 807,
      "ahkk": 808,
      "Ã¥": 809,
      "ĠDat": 810,
      "eb": 811,
      "Ġkult": 812,
      "ĠoÅ¾Å¾": 813,
      "ĠSt": 814,
      "Ġmann": 815,
      "Ġmuht": 816,
      "ĠGuovdageainn": 817,
      "ĠvÃ¡r": 818,
      "Ġbeass": 819,
      "Ġboazodo": 820,
      "ĠdÃ¡t": 821,
      "Ġbargg": 822,
      "idd": 823,
      "ĠmÃ¡nÃ¡id": 824,
      "bma": 825,
      "ĠâĢ": 826,
      "ĠgÃ¡v": 827,
      "aidn": 828,
      "Ã¡dus": 829,
      "ejolaÅ¡": 830,
      "inna": 831,
      "ki": 832,
      "Ġbeaivvi": 833,
      "ĠmaÅĭÅĭ": 834,
      "ĠrÃ¡hk": 835,
      "ĠÂ«": 836,
      "kko": 837,
      "Ġolbmot": 838,
      "ĠIn": 839,
      "odaga": 840,
      "Ġpolit": 841,
      "ĠOl": 842,
      "ĠMii": 843,
      "Ġdeh": 844,
      "Ġoaidn": 845,
      "Ã¡il": 846,
      "Ġolu": 847,
      "uide": 848,
      "ĠÃ¡igg": 849,
      "Ġsk": 850,
      "ĠFinnmÃ¡rkk": 851,
      "ahus": 852,
      "ĠgeahÄįÄį": 853,
      "ara": 854,
      "alus": 855,
      "ĠJoh": 856,
      "Ġsihke": 857,
      "adje": 858,
      "ĠgÃ¡vdn": 859,
      "Ġ.": 860,
      "Ġguovll": 861,
      "ĠGo": 862,
      "dde": 863,
      "ĠMuhto": 864,
      "Ġdut": 865,
      "si": 866,
      "eahtt": 867,
      "Ġgol": 868,
      "Ġ200": 869,
      "ĠNorgga": 870,
      "Ġsuohkan": 871,
      "atn": 872,
      "oam": 873,
      "Ġfert": 874,
      "uhit": 875,
      "Ġdoar": 876,
      "ĠvejolaÅ¡": 877,
      "Ġ4": 878,
      "Ġvuostt": 879,
      "Ġ20": 880,
      "oar": 881,
      "ojit": 882,
      "Ġeal": 883,
      "Ġber": 884,
      "ĠdÃ¡s": 885,
      "lÃ¡n": 886,
      "ĠÃ¡lgg": 887,
      "itn": 888,
      "ddaÅ¡": 889,
      "ras": 890,
      "Ġdihte": 891,
      "Ġeall": 892,
      "Ġmus": 893,
      "Ġdii": 894,
      "ĠdÃ¡rbb": 895,
      "agat": 896,
      "Ġbeal": 897,
      "iidda": 898,
      "Ġrii": 899,
      "Ġjur": 900,
      "org": 901,
      "Ġovddas": 902,
      "Ġmielas": 903,
      "pr": 904,
      "ĠC": 905,
      "ĠÄįil": 906,
      "yl": 907,
      "Ã¡dj": 908,
      "ĠDÃ¡l": 909,
      "igg": 910,
      "ĠlivÄįÄį": 911,
      "iÅ¡": 912,
      "Åĭg": 913,
      "Ġbuorre": 914,
      "Ġdas": 915,
      "Ġbures": 916,
      "htet": 917,
      "Ã¡ttis": 918,
      "ima": 919,
      "ira": 920,
      "uha": 921,
      "Ġgalget": 922,
      "llas": 923,
      "jo": 924,
      "oavkk": 925,
      "ku": 926,
      "ejit": 927,
      "Äĳi": 928,
      "eaivv": 929,
      "oaht": 930,
      "ĠMar": 931,
      "astit": 932,
      "mmoÅ¡": 933,
      "ust": 934,
      "Ġovttas": 935,
      "Ġ5": 936,
      "no": 937,
      "Ġgul": 938,
      "ege": 939,
      "Ġmas": 940,
      "emus": 941,
      "Ġeanet": 942,
      "Ã¡vd": 943,
      "ug": 944,
      "Ġadd": 945,
      "Ġunn": 946,
      "uvvot": 947,
      "ĠÄįa": 948,
      "ĠÄįie": 949,
      "Ġlog": 950,
      "Ġeret": 951,
      "Ġvuol": 952,
      "ĠÃ¡Å¡Å¡i": 953,
      "Ġguhk": 954,
      "Ã¡ib": 955,
      "kon": 956,
      "Ã¡tn": 957,
      "ĠduoÄĳ": 958,
      "Ġsuo": 959,
      "Ġorr": 960,
      "ĠsÃ¡pmel": 961,
      "ohkk": 962,
      "Ġjuohk": 963,
      "erv": 964,
      "ahan": 965,
      "Ã¤": 966,
      "ĠÃ¡v": 967,
      "Ġferte": 968,
      "ann": 969,
      "bbo": 970,
      "Ã¡z": 971,
      "ers": 972,
      "illii": 973,
      "Ġgalgg": 974,
      "Ġna": 975,
      "ĠbÃ¡l": 976,
      "Ã¡htt": 977,
      "enoam": 978,
      "ogas": 979,
      "Ã¡hkk": 980,
      "igat": 981,
      "uvdn": 982,
      "ent": 983,
      "Ġkon": 984,
      "ukt": 985,
      "eall": 986,
      "Ġdasa": 987,
      "ĠgÃ¡r": 988,
      "ost": 989,
      "Ġmear": 990,
      "alaÄįÄįat": 991,
      "Ġjie": 992,
      "set": 993,
      "iiguin": 994,
      "up": 995,
      "kkaÅ¡": 996,
      "Ġvie": 997,
      "Ġoaivv": 998,
      "art": 999,
      "000": 1000,
      "vttoh": 1001,
      "jÃ¡r": 1002,
      "ĠDÃ¡t": 1003,
      "vuoÄĳas": 1004,
      "Ġlass": 1005,
      "Ġgask": 1006,
      "ĠÄĮ": 1007,
      "ĠoaÅ¾Å¾ut": 1008,
      "Ġnie": 1009,
      "Ġvuost": 1010,
      "idan": 1011,
      "Ġbadje": 1012,
      "imis": 1013,
      "ib": 1014,
      "ĠdÃ¡hp": 1015,
      "ĠieÅ¾aset": 1016,
      "Ġdon": 1017,
      "Ġohc": 1018,
      "Ġvahkk": 1019,
      "adan": 1020,
      "ĠMun": 1021,
      "hpp": 1022,
      "Ã¡j": 1023,
      "iij": 1024,
      "Ġeatn": 1025,
      "Ã¡hta": 1026,
      "ohcc": 1027,
      "ka": 1028,
      "Ġain": 1029,
      "eÅ¡": 1030,
      "kta": 1031,
      "ihtt": 1032,
      "Ġgar": 1033,
      "ĠhÃ¡liid": 1034,
      "Ġbor": 1035,
      "____": 1036,
      "bmog": 1037,
      "Ã¡vv": 1038,
      "ddi": 1039,
      "allam": 1040,
      "va": 1041,
      "Ġsp": 1042,
      "ĠmÃ¡Åĭ": 1043,
      "Ġdoaimm": 1044,
      "aÅ¡t": 1045,
      "ke": 1046,
      "uhtt": 1047,
      "jes": 1048,
      "Ġjag": 1049,
      "uvvui": 1050,
      "ĠdÃ¡rbbaÅ¡": 1051,
      "Ġoass": 1052,
      "Äĳii": 1053,
      "ing": 1054,
      "ĠvÃ¡ttis": 1055,
      "Ġolbmuid": 1056,
      "ĠJa": 1057,
      "ikk": 1058,
      "Ġhe": 1059,
      "ĠdehÃ¡laÅ¡": 1060,
      "asat": 1061,
      "Ġbear": 1062,
      "âĢĿ": 1063,
      "Ġseamma": 1064,
      "Å¡Å¡": 1065,
      "ĠÅ¡at": 1066,
      "Ġbivd": 1067,
      "Å§": 1068,
      "age": 1069,
      "sii": 1070,
      "Ġoaivvil": 1071,
      "Ġeambbo": 1072,
      "ĠÃģl": 1073,
      "ĠjoÄĳiheaddji": 1074,
      "ekt": 1075,
      "Ġ7": 1076,
      "Ġgear": 1077,
      "ĠmakkÃ¡r": 1078,
      "Ġhu": 1079,
      "ĠsÃ¡httet": 1080,
      "ĠoÅ¾Å¾on": 1081,
      "ĠbÃ¡ikk": 1082,
      "Ã¡mm": 1083,
      "olog": 1084,
      "isson": 1085,
      "iht": 1086,
      "ĠÄįiel": 1087,
      "adus": 1088,
      "ĠvuosttaÅ¡": 1089,
      "rra": 1090,
      "Ġdoal": 1091,
      "Ġdalle": 1092,
      "ĠÄįilge": 1093,
      "Ã¦tta": 1094,
      "aiguin": 1095,
      "ĠDavv": 1096,
      "estiv": 1097,
      "Ġ6": 1098,
      "Ġboahtte": 1099,
      "eanta": 1100,
      "ĠÅ¡addÃ¡": 1101,
      "Ġsearv": 1102,
      "Ġfil": 1103,
      "ĠEira": 1104,
      "Ġbadjel": 1105,
      "Ã¡nn": 1106,
      "of": 1107,
      "Ã¡ÄĳÄĳ": 1108,
      "ĠIi": 1109,
      "ĠDean": 1110,
      "Go": 1111,
      "nna": 1112,
      "Ġbie": 1113,
      "ĠÃ¡lg": 1114,
      "Ã¡pm": 1115,
      "bell": 1116,
      "aha": 1117,
      "ohp": 1118,
      "idjiide": 1119,
      "Ã¡hc": 1120,
      "Ã¡ilmm": 1121,
      "Ġbohcc": 1122,
      "eaddjit": 1123,
      "ĠRuo": 1124,
      "Ġdieht": 1125,
      "rik": 1126,
      "vuoÄĳaid": 1127,
      "ĠDÃ¡n": 1128,
      "ĠvÃ¡s": 1129,
      "ĠoaÄįÄį": 1130,
      "dje": 1131,
      "Ġjahk": 1132,
      "ieht": 1133,
      "Ġgas": 1134,
      "ĠNil": 1135,
      "Ġolles": 1136,
      "ĠHÃ¦tta": 1137,
      "jÃ¡": 1138,
      "ĠrÃ¡ÄĳÄĳ": 1139,
      "Ġgovv": 1140,
      "dit": 1141,
      "ok": 1142,
      "alan": 1143,
      "uvtt": 1144,
      "ahp": 1145,
      "ett": 1146,
      "ĠrÃ¡jes": 1147,
      "vl": 1148,
      "Ġbargat": 1149,
      "Ġbidj": 1150,
      "eass": 1151,
      "rras": 1152,
      "Ġnam": 1153,
      "aÄįÄįaid": 1154,
      "ĠruÄĳ": 1155,
      "Ġstuorra": 1156,
      "Ã¡ig": 1157,
      "kit": 1158,
      "Ã¡rr": 1159,
      "Ġovtta": 1160,
      "Ġfitn": 1161,
      "adi": 1162,
      "Ġsoa": 1163,
      "amear": 1164,
      "Ġdag": 1165,
      "Ġlii": 1166,
      "pmil": 1167,
      "Ã¡b": 1168,
      "Åł": 1169,
      "ppi": 1170,
      "ĠGuovdageainnu": 1171,
      ").": 1172,
      "âĢĥ": 1173,
      "II": 1174,
      "Ġbuohk": 1175,
      "ĠvÃ¡st": 1176,
      "Ġfyl": 1177,
      "ef": 1178,
      "Ġruovtt": 1179,
      "Ġ9": 1180,
      "ejuvvon": 1181,
      "uovdd": 1182,
      "Ġoahpah": 1183,
      "ĠdakkÃ¡r": 1184,
      "Ġgieldd": 1185,
      "oÅ¡ea": 1186,
      "Ġserv": 1187,
      "assii": 1188,
      "erg": 1189,
      "ĠNu": 1190,
      "ang": 1191,
      "Ġruvnn": 1192,
      "Ġveahk": 1193,
      "Ġguokte": 1194,
      "Ã¸r": 1195,
      "ĠSÃ¡medikki": 1196,
      "amuÅ¡": 1197,
      "Ġdoppe": 1198,
      "Ġevttoh": 1199,
      "almm": 1200,
      "ĠsÃ¡megiela": 1201,
      "Ġjoat": 1202,
      "Äĳa": 1203,
      "barg": 1204,
      "Ġdovdd": 1205,
      "ĠgÃ¡ib": 1206,
      "Nor": 1207,
      "ĠJus": 1208,
      "nje": 1209,
      "ĠJohan": 1210,
      "ĠSii": 1211,
      "ĠÄįoahkk": 1212,
      "ĠFinnmÃ¡rkku": 1213,
      "iija": 1214,
      "Ġstiv": 1215,
      "ĠKÃ¡rÃ¡Å¡joga": 1216,
      "odagas": 1217,
      "ersen": 1218,
      "SÃ¡mi": 1219,
      "Ġboazodoall": 1220,
      "bbas": 1221,
      "ji": 1222,
      "ĠvuoÄĳÄĳ": 1223,
      "Ã¡gan": 1224,
      "ojuvvon": 1225,
      "ri": 1226,
      "uvvojit": 1227,
      "Ġmea": 1228,
      "uot": 1229,
      "Ġloahp": 1230,
      "agiid": 1231,
      "Ġbokte": 1232,
      "Ġkultuv": 1233,
      "ĠlÃ¡gid": 1234,
      "Ġdoarj": 1235,
      "ĠRom": 1236,
      "Ġdohkk": 1237,
      "oavd": 1238,
      "ovt": 1239,
      "agaid": 1240,
      "lli": 1241,
      "ĠnÃ¡": 1242,
      "kkis": 1243,
      "ĠbÃ¡r": 1244,
      "se": 1245,
      "Ġjuohke": 1246,
      "tti": 1247,
      "ĠboahtÃ¡": 1248,
      "Ã¡saÅ¡": 1249,
      "ddu": 1250,
      "Ã¡vdego": 1251,
      "ĠolmmoÅ¡": 1252,
      "........": 1253,
      "ĠlÃ¡hk": 1254,
      "ĠÃ¡rvv": 1255,
      "asaÅ¡": 1256,
      "ĠSara": 1257,
      "Ġkultur": 1258,
      "Ġgeass": 1259,
      "do": 1260,
      "ealde": 1261,
      "Ġdego": 1262,
      "Ã¡laÄįÄįat": 1263,
      "ehit": 1264,
      "ilj": 1265,
      "olbm": 1266,
      "eapm": 1267,
      "ieÄĳ": 1268,
      "eht": 1269,
      "Ġdil": 1270,
      "Ġnisson": 1271,
      "Ã¡dd": 1272,
      "earrÃ¡": 1273,
      "Ġ\"": 1274,
      "ĠlÃ¡vl": 1275,
      "Ġbes": 1276,
      "Ġgirjj": 1277,
      "ĠdieÄĳih": 1278,
      "uovll": 1279,
      "ĠÅ¡att": 1280,
      "ĠhÃ¡r": 1281,
      "ĠsÃ¡tn": 1282,
      "kÃ¡": 1283,
      "uvvan": 1284,
      "EA": 1285,
      "ĠvÃ¡ldit": 1286,
      "Ġguovtt": 1287,
      "ĠÃ¡lbmot": 1288,
      "ĠsÃ¡ht": 1289,
      "Ġoainn": 1290,
      "ĠsÃ¡hte": 1291,
      "ĠvÃ¡ll": 1292,
      "op": 1293,
      "ĠâĢľ": 1294,
      "Ġjoht": 1295,
      "ihkalaÅ¡": 1296,
      "ĠGa": 1297,
      "kke": 1298,
      "Ġdiv": 1299,
      "ĠAl": 1300,
      "Ġ201": 1301,
      "ĠvÃ¡ikk": 1302,
      "gan": 1303,
      "Ġolgg": 1304,
      "Ġlihk": 1305,
      "aÅ¡ii": 1306,
      "amis": 1307,
      "ĠsÃ¡n": 1308,
      "ĠMa": 1309,
      "Ġhan": 1310,
      "Ġgeavah": 1311,
      "Ġeat": 1312,
      "sl": 1313,
      "bmÃ¡": 1314,
      "uvnna": 1315,
      "ĠmÃ¡ilmm": 1316,
      "Ġceal": 1317,
      "ĠvuostÃ¡": 1318,
      "Ġvaikko": 1319,
      "itta": 1320,
      "Ã¡Åĭ": 1321,
      "ĠKÃ¡rÃ¡Å¡jogas": 1322,
      "allÃ¡": 1323,
      "oÄĳiheaddji": 1324,
      "gge": 1325,
      "Ġerenoam": 1326,
      "Ġlo": 1327,
      "Ġoaidnit": 1328,
      "ĠlivÄįÄįii": 1329,
      "umi": 1330,
      "Son": 1331,
      "eav": 1332,
      "ĠsÃ¡dd": 1333,
      "ppa": 1334,
      "illi": 1335,
      "oaz": 1336,
      "hÄį": 1337,
      "Ġstuora": 1338,
      "und": 1339,
      "ĠdÃ¡b": 1340,
      "iella": 1341,
      "Ġveah": 1342,
      "Ġbaj": 1343,
      "ogr": 1344,
      "ĠGuovdageainnus": 1345,
      "Ġnjuol": 1346,
      "gil": 1347,
      "Ġbii": 1348,
      "Äįoahkk": 1349,
      "Ġmovt": 1350,
      "uvl": 1351,
      "Ġnuoraid": 1352,
      "laÅ¡": 1353,
      "Ġgeavahit": 1354,
      "orm": 1355,
      "log": 1356,
      "imus": 1357,
      "Ġvuoll": 1358,
      "Å¾Å¾an": 1359,
      "Ġ8": 1360,
      "ĠTr": 1361,
      "ĠSuom": 1362,
      "ve": 1363,
      "Ġis": 1364,
      "ĠmÃ¡t": 1365,
      "ttas": 1366,
      "uvdna": 1367,
      "DD": 1368,
      "Ġguor": 1369,
      "Ġdovd": 1370,
      "era": 1371,
      "Ġjoavkk": 1372,
      "kÄįam": 1373,
      "Ġmuhtin": 1374,
      "ĠdÃ¡hpÃ¡h": 1375,
      "llii": 1376,
      "SR": 1377,
      "gÃ¡d": 1378,
      "ihit": 1379,
      "Ġrievd": 1380,
      "oavku": 1381,
      "guÄĳ": 1382,
      "eivv": 1383,
      "Ġvu": 1384,
      "ĠGaup": 1385,
      "ktui": 1386,
      "nne": 1387,
      "Ġsaj": 1388,
      "ĠjÃ¡v": 1389,
      "ĠAnd": 1390,
      "esid": 1391,
      "ĠSÃ¡mediggi": 1392,
      "ÅĭÅĭ": 1393,
      "ago": 1394,
      "ĠdÃ¡kkÃ¡r": 1395,
      "19": 1396,
      "Ġvuoigat": 1397,
      "ihkkar": 1398,
      "ard": 1399,
      "Ġdahkat": 1400,
      "amin": 1401,
      "ÄįÃ¡ll": 1402,
      "stad": 1403,
      "emÃ¡nu": 1404,
      "Ġektui": 1405,
      "Ġolbmo": 1406,
      "ĠÄįohkk": 1407,
      "ana": 1408,
      "bba": 1409,
      "vvir": 1410,
      "ĠoktavuoÄĳas": 1411,
      "ihkka": 1412,
      "uvlui": 1413,
      "ĠberoÅ¡t": 1414,
      "ddis": 1415,
      "ĠvÃ¡l": 1416,
      "ĠĠĠĠ": 1417,
      "US": 1418,
      "Ã¡hÄį": 1419,
      "eamis": 1420,
      "ter": 1421,
      "iela": 1422,
      "ĠÄįuovv": 1423,
      "Ġluon": 1424,
      "Ġgitta": 1425,
      "ĠÃ¡ibbas": 1426,
      "Ġmannan": 1427,
      "bev": 1428,
      "eantta": 1429,
      "ic": 1430,
      "Ġ10": 1431,
      "DÃ¡l": 1432,
      "uhan": 1433,
      "Ã¡ra": 1434,
      "Ġovdan": 1435,
      "vuoÄĳat": 1436,
      "ihka": 1437,
      "ĠieÅ¡guÄĳ": 1438,
      "avvir": 1439,
      "Ã¡idd": 1440,
      "ine": 1441,
      "ĠÃ¡rv": 1442,
      "earvvi": 1443,
      "UO": 1444,
      "alii": 1445,
      "Ġvuoit": 1446,
      "ĠSk": 1447,
      "met": 1448,
      "Ġdol": 1449,
      "ors": 1450,
      "ĠIpmil": 1451,
      "Ġheiv": 1452,
      "bbi": 1453,
      "ĠVuo": 1454,
      "ogrÃ¡mm": 1455,
      "ven": 1456,
      "Ġsm": 1457,
      "Ġbeassat": 1458,
      "ord": 1459,
      "Ġsom": 1460,
      "Ġvahkku": 1461,
      "20": 1462,
      "ĠdieÄĳus": 1463,
      "ivd": 1464,
      "earvvaÅ¡": 1465,
      "isev": 1466,
      "ĠmearkkaÅ¡": 1467,
      "ssas": 1468,
      "ff": 1469,
      "mas": 1470,
      "Ġpros": 1471,
      "Ã¡lald": 1472,
      "Ġru": 1473,
      "uhtii": 1474,
      "Ġearr": 1475,
      "ĠieÅ¡guÄĳet": 1476,
      "Ġgoit": 1477,
      "ĠovdÃ¡n": 1478,
      "jedje": 1479,
      "eaivvi": 1480,
      "hcc": 1481,
      "RK": 1482,
      "ia": 1483,
      "Ã¡dusa": 1484,
      "Ġseamm": 1485,
      "ĠdÃ¡v": 1486,
      "ĠNorggas": 1487,
      "Ġjien": 1488,
      "Ġmeah": 1489,
      "ĠHel": 1490,
      "alu": 1491,
      "ĠgÃ¡vp": 1492,
      "Ġte": 1493,
      "ĠrÃ¡dj": 1494,
      "Ġguovdd": 1495,
      "ap": 1496,
      "Ã¡Å¡t": 1497,
      "ĠgeahÄį": 1498,
      "Ġall": 1499,
      "Ġvuos": 1500,
      "goÃ¡l": 1501,
      "10": 1502,
      "asiid": 1503,
      "kuvlla": 1504,
      "rist": 1505,
      "Ġ18": 1506,
      "ovnna": 1507,
      "ĠNils": 1508,
      "ĠÄįÃ¡jehit": 1509,
      "asit": 1510,
      "jen": 1511,
      "ep": 1512,
      "Lea": 1513,
      "ĠÃ¡iggi": 1514,
      "eapmÃ¡i": 1515,
      "Ġ15": 1516,
      "Ã¡ga": 1517,
      "uj": 1518,
      "Ġoktii": 1519,
      "ĠjurddaÅ¡": 1520,
      "Ã¡meg": 1521,
      "Ġatn": 1522,
      "Ġvuolg": 1523,
      "Ġro": 1524,
      "bmil": 1525,
      "ĠvÃ¡i": 1526,
      "Ġnag": 1527,
      "Ġbukt": 1528,
      "ddus": 1529,
      "Ġoaivvilda": 1530,
      "Ġfertet": 1531,
      "kkaid": 1532,
      "Ġgilvv": 1533,
      "oaimm": 1534,
      "hka": 1535,
      "istor": 1536,
      "ĠUt": 1537,
      "Ġlassin": 1538,
      "res": 1539,
      "sta": 1540,
      "ĠmÃ¡ks": 1541,
      "oht": 1542,
      "ehus": 1543,
      "ĠW": 1544,
      "omm": 1545,
      "iÃ¡l": 1546,
      "eatn": 1547,
      "astt": 1548,
      "ĠDeanu": 1549,
      "ĠÃ": 1550,
      "ĠÄįaÄĳ": 1551,
      "ĠmaÅĭÅĭel": 1552,
      "san": 1553,
      "ret": 1554,
      "ull": 1555,
      "Å¾a": 1556,
      "Ġgoa": 1557,
      "dni": 1558,
      "Ġgiell": 1559,
      "Ã¡Å¾it": 1560,
      "anne": 1561,
      "Ġdeaivv": 1562,
      "DÃ¡n": 1563,
      "Ġdeatt": 1564,
      "Ġoidn": 1565,
      "idii": 1566,
      "ant": 1567,
      "ĠplÃ¡n": 1568,
      "FinnmÃ¡rkk": 1569,
      "jai": 1570,
      "ĠHen": 1571,
      "ĠÃ¡igi": 1572,
      "Ġbeaiv": 1573,
      "Ġnugo": 1574,
      "Mu": 1575,
      "Ġvuodj": 1576,
      "Ġiige": 1577,
      "evaÅ¡": 1578,
      "ĠNord": 1579,
      "eddj": 1580,
      "ĠmÃ¡nÃ¡t": 1581,
      "Ġovdamear": 1582,
      "Äįie": 1583,
      "Ġvir": 1584,
      "Ġ199": 1585,
      "Ġmuitalit": 1586,
      "Ġbarggu": 1587,
      "Ġmis": 1588,
      "ĠÅ¡addat": 1589,
      "ovd": 1590,
      "Ii": 1591,
      "Ġun": 1592,
      "ren": 1593,
      "Ġ000": 1594,
      "ĠMÃ¡r": 1595,
      "ierra": 1596,
      "Ã¡ik": 1597,
      "ĠjÃ¡hkk": 1598,
      "Ã¡nit": 1599,
      "),": 1600,
      "ĠDavvi": 1601,
      "Ġhir": 1602,
      "utt": 1603,
      "get": 1604,
      "ĠÃ¡rbev": 1605,
      "Ġdainna": 1606,
      "ĠsÃ¡medi": 1607,
      "Ġgilv": 1608,
      "ĠjoÄĳih": 1609,
      "isevÃ¡ldd": 1610,
      "Ġearret": 1611,
      "ĠAr": 1612,
      "Ġbohtet": 1613,
      "Ġmoa": 1614,
      "Ã¡na": 1615,
      "ĠproÅ¡ea": 1616,
      "vii": 1617,
      "Ã¡mus": 1618,
      "ĠboÄĳii": 1619,
      "Ġbesset": 1620,
      "ĠsÃ¡g": 1621,
      "Ġskuvl": 1622,
      "ĠhÃ¡v": 1623,
      "Ġill": 1624,
      "Ġmuhtun": 1625,
      "uov": 1626,
      "Ġbuori": 1627,
      "Ġbeare": 1628,
      "upmi": 1629,
      "ĠmÃ¡nn": 1630,
      "ĠUtsi": 1631,
      "ĠdÃ¡ppe": 1632,
      "Ġsus": 1633,
      "ath": 1634,
      "Ġgaskkas": 1635,
      "mmÃ¡i": 1636,
      "ĠboahtÃ¡n": 1637,
      "Ġruvnno": 1638,
      "ehta": 1639,
      "ran": 1640,
      "ehk": 1641,
      "Ã¡pmel": 1642,
      "vÃ¡st": 1643,
      "oss": 1644,
      "tneg": 1645,
      "Ġdutk": 1646,
      "htÃ¡": 1647,
      "ĠgohÄį": 1648,
      "ĠmÃ¡htt": 1649,
      "Ã¡zz": 1650,
      "Ġvear": 1651,
      "ĠdieÄĳuid": 1652,
      "ggis": 1653,
      "kÅ¡": 1654,
      "ari": 1655,
      "Ġ11": 1656,
      "lle": 1657,
      "ĠDÃ¡": 1658,
      "ĠEl": 1659,
      "Ġkons": 1660,
      "ĠÃ¡rvvoÅ¡t": 1661,
      "ilis": 1662,
      "htii": 1663,
      "Ġsierra": 1664,
      "ĠHearrÃ¡": 1665,
      "udit": 1666,
      "ĠHenrik": 1667,
      "ĠÃ¡lgoÃ¡l": 1668,
      "Ġviid": 1669,
      "Ã¡muÅ¡": 1670,
      "Ġhuks": 1671,
      "Ã¡nan": 1672,
      "osa": 1673,
      "ahkii": 1674,
      "Ġguol": 1675,
      "ĠhÃ¡lddaÅ¡": 1676,
      "ĠoaÅ¾Å¾u": 1677,
      "Ġgov": 1678,
      "Äĳas": 1679,
      "ejoÄĳiheaddji": 1680,
      "ĠJohn": 1681,
      "ĠgeaÅ¾": 1682,
      "Mii": 1683,
      "Ġjear": 1684,
      "Ġlohp": 1685,
      "Ġ12": 1686,
      "ĠealÃ¡hus": 1687,
      "utnje": 1688,
      "emiid": 1689,
      "Ġoaiv": 1690,
      "Ġfestiv": 1691,
      "ĠFinnmÃ¡rkkus": 1692,
      "earvi": 1693,
      "ild": 1694,
      "ĠÅ¡addan": 1695,
      "ĠdÃ¡rog": 1696,
      "St": 1697,
      "Ġnamm": 1698,
      "ĠÅ¡attai": 1699,
      "rii": 1700,
      "SÃ¡medi": 1701,
      "oahpp": 1702,
      "rid": 1703,
      "ĠÃ¡igge": 1704,
      "Ġga": 1705,
      "Ġbiss": 1706,
      "ĠRuoÅ§": 1707,
      "Äĳe": 1708,
      "gÃ¡r": 1709,
      "Ġmilj": 1710,
      "Ġ0": 1711,
      "Ġgoass": 1712,
      "Ġmunn": 1713,
      "ahallan": 1714,
      "ĠÃ¡vv": 1715,
      "Ġnuppi": 1716,
      "________": 1717,
      "Ġgolbma": 1718,
      "Ġges": 1719,
      "ĠlivÄįÄįe": 1720,
      "bmat": 1721,
      "odit": 1722,
      "Ã¡rkan": 1723,
      "asto": 1724,
      "ĠÃ¡igu": 1725,
      "ĠGir": 1726,
      "Ġvuovd": 1727,
      "Ġgieldda": 1728,
      "ĠdÃ¡idd": 1729,
      "ĠrÃ¡hkad": 1730,
      "Ã¡hn": 1731,
      "Ġruht": 1732,
      "eantt": 1733,
      "Ġdohk": 1734,
      "Ġdavv": 1735,
      "Ġgeas": 1736,
      "agis": 1737,
      "ĠMÃ¡": 1738,
      "he": 1739,
      "by": 1740,
      "ĠjÃ¡hk": 1741,
      "Ġipm": 1742,
      "bargg": 1743,
      "artem": 1744,
      "oahtit": 1745,
      "ĠNSR": 1746,
      "eamen": 1747,
      "sak": 1748,
      "Ã¡Å¾a": 1749,
      "ĠMin": 1750,
      "ĠsÃ¡r": 1751,
      "ggu": 1752,
      "Ġleaba": 1753,
      "ĠvuoÄĳ": 1754,
      "eaddjin": 1755,
      "ĠÃģltt": 1756,
      "Ġeahp": 1757,
      "ies": 1758,
      "bmu": 1759,
      "Ġsadj": 1760,
      "Ġorru": 1761,
      "jad": 1762,
      "kkÃ¡": 1763,
      "imii": 1764,
      "Ġoalle": 1765,
      "Ġfertejit": 1766,
      "ema": 1767,
      "Ġnjuolgg": 1768,
      "Ġvahk": 1769,
      "Ġsidjiide": 1770,
      "esideanta": 1771,
      "ĠjoÄĳ": 1772,
      "Ã¡mi": 1773,
      "ojuvvo": 1774,
      "Ġdanin": 1775,
      "eamos": 1776,
      "ahttit": 1777,
      "ĠBarg": 1778,
      "Ã¡lv": 1779,
      "osiid": 1780,
      "Ġbuoremus": 1781,
      "ma": 1782,
      "Ġboahtit": 1783,
      "emin": 1784,
      "ĠDe": 1785,
      "ĠhÃ¡st": 1786,
      "ĠvÃ¡ldd": 1787,
      "ĠÃ¡Å¡Å¡iid": 1788,
      "iidbell": 1789,
      "ĠDalle": 1790,
      "Ġlihkk": 1791,
      "ĠHan": 1792,
      "Ġsutnje": 1793,
      "Ã¡Å¾is": 1794,
      "Ġnuorat": 1795,
      "Ġ,": 1796,
      "le": 1797,
      "ĠÄįÃ¡j": 1798,
      "ĠdieÄĳe": 1799,
      "Ġgeardde": 1800,
      "ĠrÃ¡hkadit": 1801,
      "njÃ¡r": 1802,
      "gab": 1803,
      "Ġbearr": 1804,
      "Ġ16": 1805,
      "iell": 1806,
      "hki": 1807,
      "ket": 1808,
      "ĠhÃ¡rjeh": 1809,
      "Ġguvlui": 1810,
      "Ã¡nus": 1811,
      "ird": 1812,
      "vtta": 1813,
      "IIDD": 1814,
      "ind": 1815,
      "ĠsÃ¡megillii": 1816,
      "ĠdearvvaÅ¡": 1817,
      "Ġgovven": 1818,
      "ĠÄįuoj": 1819,
      "iev": 1820,
      "Ġoas": 1821,
      "Ġit": 1822,
      "uiguin": 1823,
      "ĠoaÄįÄįui": 1824,
      "kuvla": 1825,
      "eret": 1826,
      "Ġfal": 1827,
      "Ġpolitiij": 1828,
      "skk": 1829,
      "Ġfylkk": 1830,
      "Ã¡bm": 1831,
      "vaÅ¡": 1832,
      "ulbmil": 1833,
      "ÄĳÄĳa": 1834,
      "Vuo": 1835,
      "ĠbÃ¡": 1836,
      "Ġbai": 1837,
      "ĠstÃ¡hta": 1838,
      "ĠSuoma": 1839,
      "iiva": 1840,
      "nas": 1841,
      "ek": 1842,
      "Ġlu": 1843,
      "Ã¡ÄĳÄĳi": 1844,
      "Ġovttasbarg": 1845,
      "vven": 1846,
      "Ġdiehtit": 1847,
      "uhus": 1848,
      "Ġ30": 1849,
      "dne": 1850,
      "ddas": 1851,
      "ĠmaÅĭÅĭÃ¡": 1852,
      "itÃ¡": 1853,
      "ĠovddasvÃ¡st": 1854,
      "adio": 1855,
      "Ġvuord": 1856,
      "In": 1857,
      "ark": 1858,
      "IIDDUS": 1859,
      "Ġgarras": 1860,
      "ĠNRK": 1861,
      "Ġil": 1862,
      "eaiv": 1863,
      "rat": 1864,
      "agi": 1865,
      "Ġbuvtt": 1866,
      "ert": 1867,
      "ĠTor": 1868,
      "ĠLar": 1869,
      "ĠguhkÃ¡": 1870,
      "ĠÃ¡lbmog": 1871,
      "Ã¡rat": 1872,
      "ĠÄįiekÄį": 1873,
      "ĠNuor": 1874,
      "imin": 1875,
      "ĠKrist": 1876,
      "osat": 1877,
      "Norgga": 1878,
      "ĠÄįÃ¡jeha": 1879,
      "ĠspÃ¡": 1880,
      "Ġju": 1881,
      "ĠoÅ¾Å¾ot": 1882,
      "Ġheaj": 1883,
      "Ã¡Å¾ii": 1884,
      "Ġvii": 1885,
      "ĠfÃ¡rr": 1886,
      "Ġgiella": 1887,
      "ĠsÃ¡miid": 1888,
      "ĠSu": 1889,
      "Ġhistor": 1890,
      "allama": 1891,
      "ĠÄįalmm": 1892,
      "Ġmanne": 1893,
      "ĠStuor": 1894,
      "Ġbargan": 1895,
      "Ġgirk": 1896,
      "ĠÄįÃ¡llÃ¡": 1897,
      "alo": 1898,
      "ĠOsl": 1899,
      "ĠIsak": 1900,
      "iivv": 1901,
      "Ġ13": 1902,
      "KÃ¡rÃ¡Å¡j": 1903,
      "ĠeisevÃ¡ldd": 1904,
      "rÃ¡": 1905,
      "irekt": 1906,
      "io": 1907,
      "Ġbidjat": 1908,
      "Ġ17": 1909,
      "Ã¡hÄįÄį": 1910,
      "ettiin": 1911,
      "Ġmuo": 1912,
      "Ġbargu": 1913,
      "ĠÃģi": 1914,
      "Ġdilli": 1915,
      "Ġkr": 1916,
      "Ġbuohkat": 1917,
      "Ġsullii": 1918,
      "uomÃ¡Å¡": 1919,
      "Ġnann": 1920,
      "aba": 1921,
      "Ġguhte": 1922,
      "Ġdanne": 1923,
      "ĠvÃ¡zz": 1924,
      "otn": 1925,
      "Ġalde": 1926,
      "Ġohpp": 1927,
      "ikkel": 1928,
      "ĠnÃ¡v": 1929,
      "oavda": 1930,
      "oazodo": 1931,
      "Ġbeas": 1932,
      "Ġguovllus": 1933,
      "ww": 1934,
      "htas": 1935,
      "Ġdohkkeh": 1936,
      "Ġlas": 1937,
      "ck": 1938,
      "isÃ¡meg": 1939,
      "bu": 1940,
      "ĠieÅ¾at": 1941,
      "Ġdain": 1942,
      "Ġvuoi": 1943,
      "ĠÄįÃ¡l": 1944,
      "Ġalmmuh": 1945,
      "jell": 1946,
      "eren": 1947,
      "Ġan": 1948,
      "ro": 1949,
      "Ġgielda": 1950,
      "ĠDo": 1951,
      "ĠÄįuoÄįÄį": 1952,
      "amiid": 1953,
      "Ġbaicc": 1954,
      "vÃ¡i": 1955,
      "Ã¡in": 1956,
      "ilit": 1957,
      "ola": 1958,
      "ĠPed": 1959,
      "ĠdÃ¡bÃ¡laÅ¡": 1960,
      "ĠÃ¡vÅ¾Å¾": 1961,
      "ada": 1962,
      "Ġbuoret": 1963,
      "ĠieÅ¾a": 1964,
      "FinnmÃ¡rkku": 1965,
      "isaÅ¡": 1966,
      "alÃ¡Å¡t": 1967,
      "uvvÃ¡": 1968,
      "Ġgel": 1969,
      "Ġaddit": 1970,
      "SA": 1971,
      "Ġdajai": 1972,
      "Ġsiv": 1973,
      "arl": 1974,
      "ĠRomssa": 1975,
      "ista": 1976,
      "eas": 1977,
      "ĠÄįoa": 1978,
      "eahttun": 1979,
      "Ġgon": 1980,
      "ĠmÃ¡Åĭga": 1981,
      "Ġdig": 1982,
      "ĠgeaÅ¾il": 1983,
      "...": 1984,
      "ĠveahÃ¡": 1985,
      "amat": 1986,
      "ĠAnne": 1987,
      "ĠsÃ¡vv": 1988,
      "ĠOle": 1989,
      "ĠSol": 1990,
      "Ġoktage": 1991,
      "Ã¡husa": 1992,
      "ili": 1993,
      "ĠÅ¡ieht": 1994,
      "Ġbis": 1995,
      "Ġog": 1996,
      "ĠsomÃ¡": 1997,
      "ĠVar": 1998,
      "ander": 1999,
      "ĠdÃ¡vjÃ¡": 2000,
      "ys": 2001,
      "ĠÃ¡lo": 2002,
      "ĠsÃ¡httit": 2003,
      "eahÄįÄį": 2004,
      "Ġdahkan": 2005,
      "Ġulbmil": 2006,
      "ĠPer": 2007,
      "eapp": 2008,
      "irjj": 2009,
      "athis": 2010,
      "IT": 2011,
      "eame": 2012,
      "amÃ¡nu": 2013,
      "Ġveahkk": 2014,
      "ĠvÃ¡hn": 2015,
      "gii": 2016,
      "anas": 2017,
      "ger": 2018,
      "Ġgi": 2019,
      "Ġsihkkar": 2020,
      "ggat": 2021,
      "Ġdoaibm": 2022,
      "Ġim": 2023,
      "Ġcealk": 2024,
      "ddolaÅ¡": 2025,
      "Ġmuital": 2026,
      "ĠfuomÃ¡Å¡": 2027,
      "ĠBir": 2028,
      "Ġmedi": 2029,
      "Ġvul": 2030,
      "Ġnupp": 2031,
      "jej": 2032,
      "Ġnamma": 2033,
      "ame": 2034,
      "mmet": 2035,
      "ologut": 2036,
      "Ġolggob": 2037,
      "AL": 2038,
      "ĠMaid": 2039,
      "gen": 2040,
      "ggaid": 2041,
      "adusaid": 2042,
      "Ġlob": 2043,
      "Ã¡pmi": 2044,
      "ĠgÃ¡vnn": 2045,
      "olaÄįÄįat": 2046,
      "Ġjuovl": 2047,
      "HK": 2048,
      "llud": 2049,
      "Ġbell": 2050,
      "ĠmÃ¡rkan": 2051,
      "ĠrÃ¡djÃ¡i": 2052,
      "Ġgiela": 2053,
      "Ġmiella": 2054,
      "ĠgalggaÅ¡ii": 2055,
      "Ġavii": 2056,
      "ohka": 2057,
      "ĠmiehtÃ¡": 2058,
      "asta": 2059,
      "jÃ¸r": 2060,
      "aikko": 2061,
      "ila": 2062,
      "Ġfuo": 2063,
      "osaÅ¡": 2064,
      "irolaÅ¡": 2065,
      "200": 2066,
      "ĠerenoamÃ¡Å¡": 2067,
      "ĠunnÃ¡n": 2068,
      "Ġboares": 2069,
      "ĠÃ¡sah": 2070,
      "Ġmuitt": 2071,
      "ch": 2072,
      "emiin": 2073,
      "ĠmannÃ¡": 2074,
      "ĠbÃ¡ik": 2075,
      "anj": 2076,
      "ittii": 2077,
      "Ã¡hter": 2078,
      "ĠmÃ¡id": 2079,
      "kuvllas": 2080,
      "ĠÃģvvir": 2081,
      "Ġgodd": 2082,
      "ĠduoÄĳaÅ¡t": 2083,
      "ien": 2084,
      "Ġ14": 2085,
      "again": 2086,
      "alis": 2087,
      "mo": 2088,
      "Ġrahp": 2089,
      "Ġmunnje": 2090,
      "ĠsÃ¡v": 2091,
      "Å¾ald": 2092,
      "Ġoassi": 2093,
      "ĠÃ¡Å¡Å¡is": 2094,
      "ÄįÄįa": 2095,
      "ĠmÃ¡nÃ¡idgÃ¡r": 2096,
      "ĠbÃ¡ikkÃ¡laÅ¡": 2097,
      "ĠsÃ¡hka": 2098,
      "Ġlahk": 2099,
      "ahtti": 2100,
      "Ã¡dat": 2101,
      "Ġgarra": 2102,
      "11": 2103,
      "Ġdus": 2104,
      "Ġrab": 2105,
      "Ġdin": 2106,
      "ĠfÃ¡lald": 2107,
      "Ġgeain": 2108,
      "idnu": 2109,
      "ahallat": 2110,
      "nes": 2111,
      "ĠÅ¡addet": 2112,
      "Ġloga": 2113,
      "Ġ25": 2114,
      "vi": 2115,
      "Ġgullat": 2116,
      "30": 2117,
      "Ġbiv": 2118,
      "Ġdadjat": 2119,
      "ĠSÃ¡medigg": 2120,
      "di": 2121,
      "Ġfin": 2122,
      "to": 2123,
      "ÄįiekÄį": 2124,
      "Ġjurd": 2125,
      "iinn": 2126,
      "Ġoahppit": 2127,
      "odan": 2128,
      "Ã¡hpp": 2129,
      "uovv": 2130,
      "Ġorgan": 2131,
      "ĠBal": 2132,
      "Ġbah": 2133,
      "Ġbid": 2134,
      "ĠÃ¡lggah": 2135,
      "oluo": 2136,
      "Guovdageainn": 2137,
      "ela": 2138,
      "imuÅ¡": 2139,
      "uss": 2140,
      "AT": 2141,
      "ion": 2142,
      "allet": 2143,
      "emat": 2144,
      "Ġnuorra": 2145,
      "Ġmasa": 2146,
      "ena": 2147,
      "Ġbovd": 2148,
      "ĠAnt": 2149,
      "Ġoroh": 2150,
      "ens": 2151,
      "oall": 2152,
      "Ġdul": 2153,
      "Ġjagiid": 2154,
      "ĠvuoÄĳul": 2155,
      "ĠLa": 2156,
      "ĠPors": 2157,
      "ĠÄįuj": 2158,
      "ko": 2159,
      "Mun": 2160,
      "ĠMikkel": 2161,
      "ĠBul": 2162,
      "itehta": 2163,
      "emet": 2164,
      "ttaid": 2165,
      "ĠriegÃ¡d": 2166,
      "ĠÃ¡ss": 2167,
      "hÄįÄį": 2168,
      "ĠDasa": 2169,
      "uovddÃ¡Å¡": 2170,
      "Ġgarrasit": 2171,
      "uovtt": 2172,
      "ĠmÃ¡ilmmi": 2173,
      "Ġbuohcc": 2174,
      "Ġar": 2175,
      "Ġlusa": 2176,
      "ĠvÃ¡id": 2177,
      "Ġbealde": 2178,
      "ub": 2179,
      "uoÄĳ": 2180,
      "Ġolg": 2181,
      "uttorm": 2182,
      "ĠÃ¡dd": 2183,
      "uvvat": 2184,
      "Ġgalgga": 2185,
      "aheaddji": 2186,
      "ĠleamaÅ¡an": 2187,
      "ĠTh": 2188,
      "ĠdÃ¡hpÃ¡hus": 2189,
      "ĠSom": 2190,
      "ĠgieÄĳ": 2191,
      "ervv": 2192,
      "Ġkultuvrra": 2193,
      "ĠdoarvÃ¡i": 2194,
      "ĠruÄĳa": 2195,
      "ĠearÃ¡id": 2196,
      "ĠgeahÄįÄįat": 2197,
      "mu": 2198,
      "ĠhÃ¡ll": 2199,
      "ĠmuÄĳ": 2200,
      "ort": 2201,
      "ĠoktavuoÄĳa": 2202,
      "ĠhÃ¡liidit": 2203,
      "Ã¡ss": 2204,
      "amii": 2205,
      "ĠMus": 2206,
      "uma": 2207,
      "ip": 2208,
      "easet": 2209,
      "ĠSÃ¡medikkis": 2210,
      "Ġdutkan": 2211,
      "Ol": 2212,
      "Ġoahpahus": 2213,
      "ĠNy": 2214,
      "olbmot": 2215,
      "Ġolbmuide": 2216,
      "Ġvuolgit": 2217,
      "man": 2218,
      "ĠgÃ¡vdnat": 2219,
      "mmat": 2220,
      "................": 2221,
      "ĠjÃ¡pm": 2222,
      "eng": 2223,
      "ak": 2224,
      "buot": 2225,
      "Ġdili": 2226,
      "IE": 2227,
      "tet": 2228,
      "ĠdieÄĳusge": 2229,
      "urn": 2230,
      "Ġjagis": 2231,
      "Ġguovllu": 2232,
      "Ġskuvll": 2233,
      "Ġsisa": 2234,
      "ilvv": 2235,
      "ĠÃ¡id": 2236,
      "Ġmiljovnna": 2237,
      "ver": 2238,
      "Ġjorg": 2239,
      "ahpp": 2240,
      "Ġart": 2241,
      "Ġskuvlla": 2242,
      "Ġjos": 2243,
      "Ġskuvla": 2244,
      "ĠAs": 2245,
      "bo": 2246,
      "Ġruhta": 2247,
      "Ġduhta": 2248,
      "12": 2249,
      "Ġmeann": 2250,
      "ĠBo": 2251,
      "ĠbajÃ¡s": 2252,
      "ĠÄįuov": 2253,
      "Ã¡las": 2254,
      "Ġguosk": 2255,
      "DÃ¡t": 2256,
      "Ġeahk": 2257,
      "Ġvearr": 2258,
      "eappot": 2259,
      "amÃ¡nn": 2260,
      "ĠMathis": 2261,
      "Ġmaidege": 2262,
      "Du": 2263,
      "Ġjuoga": 2264,
      "ihan": 2265,
      "ĠdÃ¡lÃ¡": 2266,
      "ĠÃ¡rbevirolaÅ¡": 2267,
      "ĠboahtteÃ¡i": 2268,
      "ĠGuttorm": 2269,
      "ĠmÃ¡nÃ¡ide": 2270,
      "stit": 2271,
      "ĠBargiidbell": 2272,
      "vuoigat": 2273,
      "jet": 2274,
      "Ġlun": 2275,
      "Ġskuvllas": 2276,
      "Ġberre": 2277,
      "ĠbÃ¡lv": 2278,
      "ĠfÃ¡ll": 2279,
      "gas": 2280,
      "jahk": 2281,
      "ĠoktasaÅ¡": 2282,
      "festiv": 2283,
      "adusa": 2284,
      "Ã¡vrr": 2285,
      "Ġsearvat": 2286,
      "Ġoahppat": 2287,
      "Ġlohkat": 2288,
      "ĠdÃ¡rbu": 2289,
      "Ġdor": 2290,
      "ĠlÃ¡vv": 2291,
      "llen": 2292,
      "oazodoall": 2293,
      "eaigg": 2294,
      "Ġdal": 2295,
      "Ġala": 2296,
      "Ġguovtti": 2297,
      "ĠDon": 2298,
      "ĠsÃ¡tnejoÄĳiheaddji": 2299,
      "ĠJos": 2300,
      "ĠstuorÃ¡mus": 2301,
      "dal": 2302,
      "ona": 2303,
      "Ġmovtt": 2304,
      "agiel": 2305,
      "ĠÃģn": 2306,
      "ĠalmmolaÅ¡": 2307,
      "ĠbeassÃ¡": 2308,
      "Ġproseantta": 2309,
      "Ġgielddas": 2310,
      "Ġmain": 2311,
      "18": 2312,
      "Ġsuor": 2313,
      "ĠTV": 2314,
      "ĠBuljo": 2315,
      "ivers": 2316,
      "Ġunnit": 2317,
      "ĠprogrÃ¡mm": 2318,
      "Ġbeaivve": 2319,
      "aneh": 2320,
      "oarj": 2321,
      "Ġvi": 2322,
      "Ã¡Äĳi": 2323,
      "Ã¡last": 2324,
      "SÃģ": 2325,
      "eallje": 2326,
      "15": 2327,
      "Ġohcat": 2328,
      "Ġkonsear": 2329,
      "Ġstud": 2330,
      "ĠPedersen": 2331,
      "fer": 2332,
      "Ġoktan": 2333,
      "ĠGr": 2334,
      "hcej": 2335,
      "ĠÄįav": 2336,
      "Muhto": 2337,
      "Ġmeahcc": 2338,
      "Äĳis": 2339,
      "ggus": 2340,
      "Ã¡da": 2341,
      "Äįuo": 2342,
      "Ġdutnje": 2343,
      "ĠdÃ¡htt": 2344,
      "ĠbÃ¡rtn": 2345,
      "Ġnea": 2346,
      "ttat": 2347,
      "ina": 2348,
      "Ġnubbi": 2349,
      "Ġmanai": 2350,
      "ĠÄįÃ¡llÃ¡n": 2351,
      "bmoga": 2352,
      "iduvvon": 2353,
      "Ã¡go": 2354,
      "ĠaddÃ¡": 2355,
      "ĠsÃ¡pmelaÄįÄįat": 2356,
      "Ġduohta": 2357,
      "Ġhaga": 2358,
      "Ġguoss": 2359,
      "ĠLei": 2360,
      "ihtta": 2361,
      "oll": 2362,
      "Ã¡sa": 2363,
      "lak": 2364,
      "ĠDanne": 2365,
      "ĠvÃ¡rra": 2366,
      ".âĢĿ": 2367,
      "min": 2368,
      "ĠfÃ¡g": 2369,
      "Ġdihtii": 2370,
      "kÅĭ": 2371,
      "Ġbiddj": 2372,
      "Ġhear": 2373,
      "Ġluoss": 2374,
      "ĠnjÃ¡l": 2375,
      "ĠKar": 2376,
      "Ġdiimm": 2377,
      "gat": 2378,
      "Ġom": 2379,
      "Ġdohko": 2380,
      "Ġbeassan": 2381,
      "Ġmoadde": 2382,
      "bmogiid": 2383,
      "osis": 2384,
      "kui": 2385,
      "Ã¡sat": 2386,
      "Ġdahkk": 2387,
      "logu": 2388,
      "tern": 2389,
      "rie": 2390,
      "Ġel": 2391,
      "Ã¡ldu": 2392,
      "Ġruovttus": 2393,
      "Nu": 2394,
      "Ma": 2395,
      "pet": 2396,
      "anb": 2397,
      "ĠgeahÄįÄįalit": 2398,
      "ĠhÃ¡ve": 2399,
      "ita": 2400,
      "agiin": 2401,
      "ĠÄįÃ¡z": 2402,
      "Ġgidd": 2403,
      "ĠSomby": 2404,
      "ahii": 2405,
      "Ġjienast": 2406,
      "ĠmuÄĳui": 2407,
      "Ġeallin": 2408,
      "uopm": 2409,
      "Ġallas": 2410,
      "olmmoÅ¡": 2411,
      "ĠspÃ¡bba": 2412,
      "mus": 2413,
      "ĠOvd": 2414,
      "Ã¡vdegotti": 2415,
      "Ã¡dusaid": 2416,
      "Ġmihkk": 2417,
      "ĠEr": 2418,
      "ĠAnders": 2419,
      "Ġjoavku": 2420,
      "ĠearÃ¡t": 2421,
      "ĠÄįuoÅ¾Å¾": 2422,
      "vuoÄĳain": 2423,
      "Dat": 2424,
      "Ġguhkes": 2425,
      "Ġfuol": 2426,
      "ĠsÃ¡pmelaÄįÄįaid": 2427,
      "oal": 2428,
      "Ġgalggai": 2429,
      "asii": 2430,
      "ĠJan": 2431,
      "ĠÃĺ": 2432,
      "ĠÅł": 2433,
      "Ġgoassege": 2434,
      "ĠvÃ¡il": 2435,
      "Ġvies": 2436,
      "cci": 2437,
      "alai": 2438,
      "oahtÃ¡n": 2439,
      "Ġoba": 2440,
      "Ġid": 2441,
      "IL": 2442,
      "oavkku": 2443,
      "ĠDas": 2444,
      "Ġnieidd": 2445,
      "alÃ¡gan": 2446,
      "Ġdoarjaga": 2447,
      "Ã¡vss": 2448,
      "ige": 2449,
      "Ġnjeal": 2450,
      "ĠMuht": 2451,
      "ĠJo": 2452,
      "Ġhirbmat": 2453,
      "ru": 2454,
      "ĠSÃ¡mis": 2455,
      "Ġmer": 2456,
      "Ġmidjiide": 2457,
      "Ġjuollud": 2458,
      "kkat": 2459,
      "Guovdageainnu": 2460,
      "berg": 2461,
      "ron": 2462,
      "ene": 2463,
      "ĠKl": 2464,
      "22": 2465,
      "Ġrea": 2466,
      "ĠEar": 2467,
      "ppaÅ¡": 2468,
      "Ã¡dje": 2469,
      "Ġguovlluin": 2470,
      "jadaga": 2471,
      "ĠgÃ¡vdno": 2472,
      "ID": 2473,
      "Ġjuste": 2474,
      "vu": 2475,
      "Ġmannat": 2476,
      "Ġboazodoalu": 2477,
      "iha": 2478,
      "partem": 2479,
      "Ãģl": 2480,
      "ĠeamiÃ¡l": 2481,
      "uodj": 2482,
      "Ġbist": 2483,
      "HT": 2484,
      "osit": 2485,
      "ĠrÃ¡m": 2486,
      "aÄįÄįa": 2487,
      "lohk": 2488,
      "ĠvalÃ¡Å¡t": 2489,
      "alassii": 2490,
      "Ġsoai": 2491,
      "ĠvejolaÅ¡vuohta": 2492,
      "Min": 2493,
      "Ġbirras": 2494,
      "ĠvÃ¡ldÃ¡n": 2495,
      "Ġbuoll": 2496,
      "ehtet": 2497,
      "bukt": 2498,
      "Ġlogai": 2499,
      "ĠerenoamÃ¡Å¾it": 2500,
      "Ġtur": 2501,
      "ĠBer": 2502,
      "ÄĲ": 2503,
      "idÃ¡": 2504,
      "Ã¡vdegoddi": 2505,
      "ievrr": 2506,
      "ĠrÃ¡f": 2507,
      "Ã¡nÃ¡id": 2508,
      "ĠoaidnÃ¡n": 2509,
      "ĠLean": 2510,
      "ĠguolÃ¡st": 2511,
      "Ġrabas": 2512,
      "Ġgosa": 2513,
      "ĠdigaÅ¡t": 2514,
      "ĠÄįea": 2515,
      "AN": 2516,
      "ÄįÃ¡j": 2517,
      "ĠlÃ¡hkai": 2518,
      "Ġheajos": 2519,
      "ustt": 2520,
      "Ġovdamearkka": 2521,
      "ddat": 2522,
      "ĠJes": 2523,
      "Ġatt": 2524,
      "eha": 2525,
      "IN": 2526,
      "ĠPr": 2527,
      "ĠgaÅ¾ald": 2528,
      "Ġgill": 2529,
      "ĠMis": 2530,
      "gÃ¡": 2531,
      "eivviid": 2532,
      "Ġmass": 2533,
      "ĠRadio": 2534,
      "alusa": 2535,
      "vuodj": 2536,
      "ttis": 2537,
      "ĠDoppe": 2538,
      "Ġdass": 2539,
      "ĠgullÃ¡": 2540,
      "Ġmeahc": 2541,
      "ĠruÄĳaid": 2542,
      "Ġlihkkologut": 2543,
      "ĠMarie": 2544,
      "bakk": 2545,
      "Ġduohk": 2546,
      "ĠseammÃ¡s": 2547,
      "Ġled": 2548,
      "ohis": 2549,
      "AS": 2550,
      "eamit": 2551,
      "ĠstÃ¡ht": 2552,
      "ÄįÃ¡lli": 2553,
      "Ġjoatkkas": 2554,
      "ggit": 2555,
      "uda": 2556,
      "KÃ¡rÃ¡Å¡joga": 2557,
      "Ġearenoam": 2558,
      "Ã¡Å¡ii": 2559,
      "ddar": 2560,
      "anan": 2561,
      "Ġveahki": 2562,
      "oloahp": 2563,
      "Ġ198": 2564,
      "kÄįamÃ¡nu": 2565,
      "Â».": 2566,
      "Ġdeattuha": 2567,
      "otnab": 2568,
      "odahkii": 2569,
      "ĠmÃ¡nÃ¡": 2570,
      "ĠdÃ¡f": 2571,
      "amus": 2572,
      "Ġsuohkana": 2573,
      "ĠgohÄįod": 2574,
      "Ġboht": 2575,
      "ttiid": 2576,
      "Dan": 2577,
      "kin": 2578,
      "Ġgullan": 2579,
      "usta": 2580,
      "Ã¡husas": 2581,
      "vik": 2582,
      "ihp": 2583,
      "elef": 2584,
      "iste": 2585,
      "aÅ¡a": 2586,
      "Ġheaitt": 2587,
      "ĠsÃ¡gast": 2588,
      "lÃ¡gan": 2589,
      "fitn": 2590,
      "orii": 2591,
      "isk": 2592,
      "ĠovddeÅ¡": 2593,
      "isttar": 2594,
      "idda": 2595,
      "Ġrievtt": 2596,
      "konom": 2597,
      "umin": 2598,
      "iÅ¡g": 2599,
      "eddjiid": 2600,
      "ĠdÃ¡fus": 2601,
      "eahttÃ¡": 2602,
      "ges": 2603,
      "ĠErik": 2604,
      "vuona": 2605,
      "ĠRuoÅ§a": 2606,
      "uvai": 2607,
      "ĠrÃ¡hkk": 2608,
      "Ġvuhtii": 2609,
      "olbmuid": 2610,
      "gu": 2611,
      "ĠSea": 2612,
      "bmÃ¡i": 2613,
      "stiv": 2614,
      "Ġhistorjj": 2615,
      "Ġmearridan": 2616,
      "Ġleage": 2617,
      ".)": 2618,
      "eda": 2619,
      "tte": 2620,
      "zz": 2621,
      "imm": 2622,
      "eahÄį": 2623,
      "alusaid": 2624,
      "egg": 2625,
      "Ġbarggus": 2626,
      "Ġvuittii": 2627,
      "polit": 2628,
      "âĢĻ": 2629,
      "21": 2630,
      "Ġruhtad": 2631,
      "orr": 2632,
      "ĠÄįÃ¡hc": 2633,
      "amuÅ¡a": 2634,
      "ahusa": 2635,
      "Ġnjeallje": 2636,
      "ĠmaÅĭemus": 2637,
      "ora": 2638,
      "ĠjuoidÃ¡": 2639,
      "Ġotn": 2640,
      "Ġmen": 2641,
      "vss": 2642,
      "olm": 2643,
      "ĠRuoÅ¡Å¡": 2644,
      "Ġruokt": 2645,
      "Ġ50": 2646,
      "yn": 2647,
      "joÄĳiheaddji": 2648,
      "ĠdiibmÃ¡": 2649,
      "ĠrÃ¡ÄĳÄĳehus": 2650,
      "evra": 2651,
      "ins": 2652,
      "ĠveahÃ¡Å¡": 2653,
      "Ġjearr": 2654,
      "ĠY": 2655,
      "uorast": 2656,
      "Ġ21": 2657,
      "gask": 2658,
      "Ġbuorit": 2659,
      "ĠsÃ¡niid": 2660,
      "ĠmearkkaÅ¡a": 2661,
      "meahttun": 2662,
      "ĠHelander": 2663,
      "Ġvuoitt": 2664,
      "ĠlÃ¡gidit": 2665,
      "ĠguovddÃ¡Å¡": 2666,
      "Åĭgir": 2667,
      "Ġmeasta": 2668,
      "iida": 2669,
      "Ġbier": 2670,
      "ĠÃ¡igot": 2671,
      "iÃ¡la": 2672,
      "oas": 2673,
      "Ġovddidit": 2674,
      "ĠÄįaÄĳa": 2675,
      "Ġdien": 2676,
      "oaiv": 2677,
      "gej": 2678,
      "htu": 2679,
      "ĠSir": 2680,
      "ĠRii": 2681,
      "astiv": 2682,
      "agn": 2683,
      "Ġbohccuid": 2684,
      "ĠmÃ¡nnÃ¡": 2685,
      "bmi": 2686,
      "ans": 2687,
      "ĠrÃ¡hkadan": 2688,
      "ovnn": 2689,
      "ĠbÃ¡hÄį": 2690,
      "ssaid": 2691,
      "ĠdÃ¡inna": 2692,
      "Ġcel": 2693,
      "ĠOhcej": 2694,
      "Ġgean": 2695,
      "Ã¡iki": 2696,
      "ĠLeat": 2697,
      "ĠieÅ¾an": 2698,
      "16": 2699,
      "imat": 2700,
      "uovl": 2701,
      "Ġsiskk": 2702,
      "mmas": 2703,
      "Ġjuoig": 2704,
      "ĠÃ¡lki": 2705,
      "tuv": 2706,
      "Ġloahpas": 2707,
      "aÄįÄįaide": 2708,
      "ĠBalto": 2709,
      "Ġvis": 2710,
      "Ġgalgat": 2711,
      "ĠâĢ¦": 2712,
      "eF": 2713,
      "eskit": 2714,
      "Ġsos": 2715,
      "Ġhupm": 2716,
      "Ġstivra": 2717,
      "Ġpolitihkk": 2718,
      "ggiid": 2719,
      "Jus": 2720,
      "Ã¡ris": 2721,
      "ĠmÃ¡nu": 2722,
      "Ã¡vva": 2723,
      "Ġsearvv": 2724,
      "ĠbÃ¡hc": 2725,
      "ĠInga": 2726,
      "Ġfilbm": 2727,
      "ĠgalggaÅ¡": 2728,
      "llat": 2729,
      "utk": 2730,
      "ĠHea": 2731,
      "Ġdiibmu": 2732,
      "ĠBr": 2733,
      "ĠvÃ¡rr": 2734,
      "isttalaÅ¡": 2735,
      "ĠsÃ¡pmelaÅ¡": 2736,
      "Ġlokt": 2737,
      "Ġlie": 2738,
      "eahk": 2739,
      "dii": 2740,
      "Ġgirje": 2741,
      "ĠgÃ¡vpog": 2742,
      "ĠSIIDDUS": 2743,
      "ĠDa": 2744,
      "17": 2745,
      "eale": 2746,
      "Ġsiste": 2747,
      "ĠviidÃ¡s": 2748,
      "Ġoastit": 2749,
      "Ġbivdit": 2750,
      "amet": 2751,
      "innas": 2752,
      "Ġvahku": 2753,
      "Ã¡hka": 2754,
      "ĠÃ¡sahit": 2755,
      "ĠEan": 2756,
      "ĠstuorÃ¡t": 2757,
      "ĠpolitihkalaÅ¡": 2758,
      "uoÅĭ": 2759,
      "Ġgoas": 2760,
      "ÃģR": 2761,
      "50": 2762,
      "Ġjoavkku": 2763,
      "vas": 2764,
      "ĠMaiddÃ¡i": 2765,
      "ĠrÃ¡v": 2766,
      "iÅĭ": 2767,
      "ĠÃ¡hÄįÄį": 2768,
      "eskitalo": 2769,
      "Ġluohk": 2770,
      "httit": 2771,
      "Ġlogi": 2772,
      "ĠsÃ¡htÃ¡t": 2773,
      "Ġpers": 2774,
      "bbolaÅ¡": 2775,
      "htan": 2776,
      "kkii": 2777,
      "gilvv": 2778,
      "ĠliikkÃ¡": 2779,
      "Ġguhkk": 2780,
      "Ġmuor": 2781,
      "hti": 2782,
      "ĠÃ¡vvud": 2783,
      "ĠoÄĳas": 2784,
      "ĠsÃ¡megielat": 2785,
      "eaivi": 2786,
      "ierr": 2787,
      "Ġluonddu": 2788,
      "bÃ¡ikk": 2789,
      "Ġborr": 2790,
      "ddo": 2791,
      "Ġmot": 2792,
      "ĠÄįÃ¡llit": 2793,
      "oras": 2794,
      "Ġboarr": 2795,
      "ĠdÃ¡rbbaÅ¡it": 2796,
      "ĠAnti": 2797,
      "uovdageaidnu": 2798,
      "Ġolggos": 2799,
      "eFo": 2800,
      "eimmet": 2801,
      "oluotta": 2802,
      "jÃ¸rn": 2803,
      "ejuvvo": 2804,
      "Ġodne": 2805,
      "Ġnubb": 2806,
      "ĠmÃ¡ksit": 2807,
      "jon": 2808,
      "ĠEai": 2809,
      "urnal": 2810,
      "ĠovddasvÃ¡stÃ¡dus": 2811,
      "ĠvuoiÅĭÅĭ": 2812,
      "vvi": 2813,
      "aguovdd": 2814,
      "Ġneahtt": 2815,
      "ĠmakkÃ¡rge": 2816,
      "Ġdoll": 2817,
      "14": 2818,
      "Pr": 2819,
      "Ġpreass": 2820,
      "ĠoaidnÃ¡": 2821,
      "Ġsajis": 2822,
      "ĠGal": 2823,
      "ĠmÃ¡tkk": 2824,
      "isÃ¡megillii": 2825,
      "Ġvahkkoloahp": 2826,
      "ĠvÃ¡lljej": 2827,
      "uon": 2828,
      "ĠjahkÃ¡i": 2829,
      "ĠĠĠĠĠĠĠĠ": 2830,
      "ohpp": 2831,
      "ju": 2832,
      "ĠSus": 2833,
      "Ġruvnnu": 2834,
      "pir": 2835,
      "Joh": 2836,
      "Ġboazodoll": 2837,
      "ĠmaÅĭimuÅ¡": 2838,
      "ohkii": 2839,
      "ĠSÃ¡miid": 2840,
      "ehpet": 2841,
      "kkaÅ¡umi": 2842,
      "ĠorganisaÅ¡": 2843,
      "iddu": 2844,
      "ĠÃ¡lgÃ¡": 2845,
      "Ġbuht": 2846,
      "arje": 2847,
      "Ġ22": 2848,
      "ĠÃ¡lbmoga": 2849,
      "Ġrehk": 2850,
      "uhii": 2851,
      "Ġkil": 2852,
      "ĠOlli": 2853,
      "ime": 2854,
      "Ġservv": 2855,
      "iinna": 2856,
      "ĠvÃ¡": 2857,
      "odagat": 2858,
      "Ġveahkehit": 2859,
      "tan": 2860,
      "eim": 2861,
      "Ġdasto": 2862,
      "ĠIs": 2863,
      "ahÄį": 2864,
      "Ġeanemus": 2865,
      "Ġdoaimmaid": 2866,
      "Ġeaigg": 2867,
      "Ġreg": 2868,
      "ĠdoloÅ¡": 2869,
      "umis": 2870,
      "jer": 2871,
      "ĠhÃ¡lit": 2872,
      "Ġluhtte": 2873,
      "Ġgonagas": 2874,
      "ika": 2875,
      "umiid": 2876,
      "emusat": 2877,
      "Ġkl": 2878,
      "Ġkomm": 2879,
      "ĠFinnmÃ¡r": 2880,
      "ĠÃ¡Å¡Å¡iin": 2881,
      "eassa": 2882,
      "eaba": 2883,
      "vttas": 2884,
      "ĠÃģr": 2885,
      "odagaid": 2886,
      "âĢ¦": 2887,
      "Ġ24": 2888,
      "Ġell": 2889,
      "progrÃ¡mm": 2890,
      "Ġmusihkk": 2891,
      "Ġruovttoluotta": 2892,
      "Ġgolmma": 2893,
      "geÅ¡": 2894,
      "Ġriekta": 2895,
      "plÃ¡n": 2896,
      "adieÄĳ": 2897,
      "udd": 2898,
      "ĠÄįuovvut": 2899,
      "ĠhÃ¡liida": 2900,
      "innm": 2901,
      "Ġbealis": 2902,
      "Ġolbmuin": 2903,
      "Ġsuohkanis": 2904,
      "ĠÃģlttÃ¡": 2905,
      "ahttin": 2906,
      "ĠSis": 2907,
      "ĠNii": 2908,
      "vuhtii": 2909,
      "ĠsadjÃ¡i": 2910,
      "Ġservodat": 2911,
      "ĠsÃ¡megiella": 2912,
      "sm": 2913,
      "kti": 2914,
      "tna": 2915,
      "Ġmiess": 2916,
      "Ġohcan": 2917,
      "kkÃ¡n": 2918,
      "astÃ¡": 2919,
      "land": 2920,
      "oan": 2921,
      "ĠspÃ¡bbaÄįiekÄį": 2922,
      "kii": 2923,
      "oahtÃ¡": 2924,
      "adusat": 2925,
      "uovllu": 2926,
      "ĠjagÃ¡Å¡": 2927,
      "ĠJohansen": 2928,
      "egiel": 2929,
      "ĠIpmila": 2930,
      "ksen": 2931,
      "ĠsÃ¡me": 2932,
      "Ġgall": 2933,
      "Ġruv": 2934,
      "Ġse": 2935,
      "Ġjuhk": 2936,
      "yr": 2937,
      "ĠÃ¡iggis": 2938,
      "Ã¡riid": 2939,
      "irdit": 2940,
      "ĠRomssas": 2941,
      "ehtera": 2942,
      "ĠdÃ¡ss": 2943,
      "ĠKeskitalo": 2944,
      "Ġgirjji": 2945,
      "Ġsa": 2946,
      "strid": 2947,
      "Ġriikka": 2948,
      "ttar": 2949,
      "ĠBuot": 2950,
      "Ġmearridit": 2951,
      "JO": 2952,
      "Ġbiras": 2953,
      "Äĳus": 2954,
      "Ġlag": 2955,
      "adeapmi": 2956,
      "assi": 2957,
      "ĠOlsen": 2958,
      "ivÄįÄįii": 2959,
      "Ã¡rjj": 2960,
      "Ġbuorr": 2961,
      "Ġsuom": 2962,
      "vuonas": 2963,
      "eaÅĭ": 2964,
      "VV": 2965,
      "Ġbuoreb": 2966,
      "Ġburiid": 2967,
      "ĠmÃ¡vss": 2968,
      "Äįoahkkin": 2969,
      "Ġduog": 2970,
      "Ġgovva": 2971,
      "njÃ¡rgga": 2972,
      "Ġgeasi": 2973,
      "Ġekonom": 2974,
      "beaivvi": 2975,
      "Ġluondd": 2976,
      "ĠmÃ¡Åĭg": 2977,
      "ĠDeanus": 2978,
      "BR": 2979,
      "ĠÃ¡n": 2980,
      "Rom": 2981,
      "Ġbohte": 2982,
      "itet": 2983,
      "ahat": 2984,
      "ivss": 2985,
      "ĠvuoigatvuoÄĳaid": 2986,
      "Ġomd": 2987,
      "ĠTur": 2988,
      "ĠÃ¡Åĭgir": 2989,
      "ĠOslo": 2990,
      "ess": 2991,
      "Ġdoallat": 2992,
      "ĠFr": 2993,
      "ĠMari": 2994,
      "Ġbeasa": 2995,
      "Ġgaskal": 2996,
      "af": 2997,
      "sttaÅ¡": 2998,
      "Ġ100": 2999,
      "Ġvaikke": 3000,
      "Ã¸y": 3001,
      "ustteg": 3002,
      "astan": 3003,
      "Ġfilbma": 3004,
      "Ġbar": 3005,
      "ĠDie": 3006,
      "Ġcegg": 3007,
      "Ġboazo": 3008,
      "Ġbeall": 3009,
      "Ġnama": 3010,
      "uorastaga": 3011,
      "Ġmainna": 3012,
      "ĠmÃ¡Åĭgga": 3013,
      "Ġnuoraide": 3014,
      "umat": 3015,
      "Ġsudn": 3016,
      "Ġoktiibuot": 3017,
      "Ġgoalmm": 3018,
      "ĠVaikko": 3019,
      "ĠvÃ¡sihit": 3020,
      "ĠoaÄįÄįo": 3021,
      "ealla": 3022,
      "ierpm": 3023,
      "Ġorrot": 3024,
      "ĠvÃ¡ldo": 3025,
      "ĠvejolaÅ¡vuoÄĳa": 3026,
      "Ġnamalassii": 3027,
      "barggu": 3028,
      "ferÃ¡n": 3029,
      "Ġ23": 3030,
      "proÅ¡ea": 3031,
      "llu": 3032,
      "Ġriikk": 3033,
      "usaid": 3034,
      "ehusa": 3035,
      "Ġoahppan": 3036,
      "th": 3037,
      "Ġbidjan": 3038,
      "Ã¡govva": 3039,
      "ĠSa": 3040,
      "Ġboast": 3041,
      "ĠdieÄĳu": 3042,
      "oÅ¾": 3043,
      "ĠguoskÃ¡": 3044,
      "ktii": 3045,
      "IS": 3046,
      "nd": 3047,
      "jii": 3048,
      "ĠlÃ¡htt": 3049,
      "ĠteÃ¡hter": 3050,
      "ĠmaÅĭÅĭil": 3051,
      "Ġolggobealde": 3052,
      "Ġfr": 3053,
      "ihttu": 3054,
      "ĠAslak": 3055,
      "Ġbil": 3056,
      "Ġfor": 3057,
      "ĠdÃ¡lkk": 3058,
      "Ġvar": 3059,
      "ĠvÃ¡sÃ¡hus": 3060,
      "Ã¶": 3061,
      "Ġvur": 3062,
      "ĠfestivÃ¡la": 3063,
      "Ġbaicce": 3064,
      "ĠÄįielg": 3065,
      "emis": 3066,
      "ĠÄįielga": 3067,
      "ĠMÃ¡z": 3068,
      "jahkÃ¡saÅ¡": 3069,
      "presideanta": 3070,
      "ĠJon": 3071,
      "Ġkur": 3072,
      "allamis": 3073,
      "stta": 3074,
      "Ġpresideanta": 3075,
      "AG": 3076,
      "Ã¡miid": 3077,
      "Ġgeainn": 3078,
      "ĠDÃ¡s": 3079,
      "Ġoahpaheaddji": 3080,
      "ĠoÄĳÄĳaj": 3081,
      "ĠOsk": 3082,
      "Ġjul": 3083,
      "ĠÃģlttÃ¡s": 3084,
      "13": 3085,
      "ĠKlemet": 3086,
      "uvnnas": 3087,
      "osaj": 3088,
      "ĠHansen": 3089,
      "Ġledjen": 3090,
      "Ġbargguid": 3091,
      "anit": 3092,
      "Dean": 3093,
      "OÄĳÄĳa": 3094,
      "ĠdieÄĳiha": 3095,
      "ĠNj": 3096,
      "ĠÄįavÄįÄįa": 3097,
      "Ġla": 3098,
      "ĠÃ¡idna": 3099,
      "kÃ¡govva": 3100,
      "Ġintern": 3101,
      "ĠÄįielggas": 3102,
      "Maid": 3103,
      "kons": 3104,
      "annan": 3105,
      "VD": 3106,
      "sson": 3107,
      "ĠfÃ¡m": 3108,
      "ĠbÃ¡lk": 3109,
      "Ġlahka": 3110,
      "ĠdÃ¡idda": 3111,
      "Ġmenddo": 3112,
      "osii": 3113,
      "Ġ40": 3114,
      "Ġbuohkaide": 3115,
      "ĠAm": 3116,
      "ĠEllen": 3117,
      "oahk": 3118,
      "adn": 3119,
      "kat": 3120,
      "Ġruoktot": 3121,
      "Ã¡rd": 3122,
      "ĠguÄĳ": 3123,
      "Ã¡laÅ¡vuoÄĳa": 3124,
      "keahttÃ¡": 3125,
      "rasa": 3126,
      "Ġmiell": 3127,
      "ĠHenriksen": 3128,
      "ivva": 3129,
      "omin": 3130,
      "ĠvuollÃ¡i": 3131,
      "Ġat": 3132,
      "heim": 3133,
      "ĠsmÃ¡vva": 3134,
      "eavv": 3135,
      "Ġbel": 3136,
      "Ġalcc": 3137,
      "Ġnieida": 3138,
      "agovva": 3139,
      "Ã¡lmas": 3140,
      "ĠPorsÃ¡Åĭ": 3141,
      "Ġbuorebut": 3142,
      "23": 3143,
      "Ġ[": 3144,
      "ĠhÃ¡ldd": 3145,
      "Ã¥r": 3146,
      "ordaga": 3147,
      "Ã¡vdn": 3148,
      "Ġvahkkoloahpa": 3149,
      "Barg": 3150,
      "Ġoss": 3151,
      "ĠRi": 3152,
      "istan": 3153,
      "ĠbargÃ¡": 3154,
      "ym": 3155,
      "eigga": 3156,
      "itit": 3157,
      "ÃģL": 3158,
      "kuvl": 3159,
      "ĠgÃ¡rvv": 3160,
      "gal": 3161,
      "Ġ29": 3162,
      "ĠÄįaÄĳahit": 3163,
      "Ġatnit": 3164,
      "ĠDuo": 3165,
      "edit": 3166,
      "ĠsÃ¡medigge": 3167,
      "Ġvihtta": 3168,
      "erejuvvon": 3169,
      "Ġoro": 3170,
      "ultur": 3171,
      "adii": 3172,
      "Ġguoht": 3173,
      "Al": 3174,
      "ojuvvot": 3175,
      "ĠeisevÃ¡lddit": 3176,
      "Ġbiebm": 3177,
      "ĠieÅ¾amet": 3178,
      "ĠolmmÃ¡i": 3179,
      "istit": 3180,
      "Ġbill": 3181,
      "ĠGask": 3182,
      "ĠDu": 3183,
      "Ġvah": 3184,
      "ĠjoatkÃ¡": 3185,
      "ehan": 3186,
      "Ġskoht": 3187,
      "ĠduhtavaÅ¡": 3188,
      "ĠHolm": 3189,
      "Ġjohtui": 3190,
      "vdu": 3191,
      "bÃ¡lv": 3192,
      "Ġsearvvi": 3193,
      "ivÃ¡hta": 3194,
      "ĠSÃ¡pmi": 3195,
      "ĠguovddÃ¡Å¾is": 3196,
      "________________": 3197,
      "ĠdahkÃ¡": 3198,
      "ipean": 3199,
      "Ġnohk": 3200,
      "ahttÃ¡": 3201,
      "Ġoaneh": 3202,
      "Ġgullet": 3203,
      "ij": 3204,
      "Ġhil": 3205,
      "ĠÃ¡vkk": 3206,
      "Nuor": 3207,
      "ĠAnn": 3208,
      "isten": 3209,
      "isttat": 3210,
      "vÃ¡": 3211,
      "Ġakt": 3212,
      "ska": 3213,
      "Ġbearjadaga": 3214,
      "Ġheive": 3215,
      "Ġiss": 3216,
      "htes": 3217,
      "ĠsoaitÃ¡": 3218,
      "rad": 3219,
      "Ġdovddus": 3220,
      "ĠEgil": 3221,
      "ĠbÃ¡hp": 3222,
      "GÃ¡ldu": 3223,
      "ĠÅ¡l": 3224,
      "ĠdÃ¡bÃ¡laÄįÄįat": 3225,
      "ĠlÃ¡giduvvo": 3226,
      "www": 3227,
      "ct": 3228,
      "Ã¡iguin": 3229,
      "ols": 3230,
      "Ġ28": 3231,
      "iteht": 3232,
      "alli": 3233,
      "Ġlihkost": 3234,
      "ĠsÃ¡mit": 3235,
      "Ġduh": 3236,
      "Ġ197": 3237,
      "ĠInger": 3238,
      "amÃ¡nni": 3239,
      "ĠvÃ¡n": 3240,
      "Ġmusihkka": 3241,
      "Govven": 3242,
      "AR": 3243,
      "Ġriv": 3244,
      "ĠbuÅ¡": 3245,
      "Ã¤r": 3246,
      "ils": 3247,
      "Ġmihkkege": 3248,
      "ere": 3249,
      "Ġgova": 3250,
      "ĠsÃ¡rdn": 3251,
      "ihkas": 3252,
      "Ġnjuolggadusaid": 3253,
      "ĠÄįoavd": 3254,
      "bellodat": 3255,
      "Ġmuitalii": 3256,
      "Ġalbma": 3257,
      "Ġ/": 3258,
      "Ã¡iggi": 3259,
      "earri": 3260,
      "Äĳit": 3261,
      "ĠdieÄĳihit": 3262,
      "ovaÅ¡": 3263,
      "asis": 3264,
      "adeami": 3265,
      "ĠMÃ¡ret": 3266,
      "Ġbeaivi": 3267,
      "âĢ¨": 3268,
      "Ġeallima": 3269,
      "lys": 3270,
      "ĠÃħ": 3271,
      "ĠNa": 3272,
      "Ġboastut": 3273,
      "ĠbÃ¡rdni": 3274,
      "Ġdeaiv": 3275,
      "Ã¡sit": 3276,
      "ĠBerit": 3277,
      "aÅ¡un": 3278,
      "ĠÃ¡Å¡Å¡it": 3279,
      "Ġjor": 3280,
      "ylkk": 3281,
      "Ġeaige": 3282,
      "Ã¡Å¾iid": 3283,
      "ĠDavvisÃ¡megillii": 3284,
      "Ã¡pmelaÄįÄįaid": 3285,
      "Ġlohkk": 3286,
      "Ã¡dusat": 3287,
      "ĠHa": 3288,
      "bellodaga": 3289,
      "ggÃ¡": 3290,
      "aÄįÄįain": 3291,
      "Ġbeatn": 3292,
      "ĠÄįielgg": 3293,
      "ian": 3294,
      "Ġovttast": 3295,
      "Ã¡rgga": 3296,
      "Ġnjuovv": 3297,
      "ĠduoÄĳaid": 3298,
      "ĠBoazodoall": 3299,
      "Ġunivers": 3300,
      "alla": 3301,
      "agoahtit": 3302,
      "ddaid": 3303,
      "ĠgÃ¡l": 3304,
      "Ġgeavahan": 3305,
      "Ġvuosttas": 3306,
      "Ġsihkk": 3307,
      "ĠnÃ¡vcc": 3308,
      "Ġeallit": 3309,
      "ĠÃ¡lggahit": 3310,
      "Ġopp": 3311,
      "Ġmearrid": 3312,
      "ĠÄįeahp": 3313,
      "Ġsuodj": 3314,
      "ĠÃģigi": 3315,
      "ein": 3316,
      "Ġ%": 3317,
      "ĠvÃ¡rÃ¡s": 3318,
      "enom": 3319,
      "ĠgÃ¡n": 3320,
      "Ġamas": 3321,
      "Ġoasi": 3322,
      "ME": 3323,
      "Ã¡igge": 3324,
      "logus": 3325,
      "Ġriikkaid": 3326,
      "li": 3327,
      "ĠmÃ¡ilmmis": 3328,
      "MI": 3329,
      "dv": 3330,
      "uvnnaid": 3331,
      "ĠvÃ¡lljen": 3332,
      "ĠgelbbolaÅ¡": 3333,
      "iti": 3334,
      "oda": 3335,
      "Ġleigga": 3336,
      "ĠsÃ¡medigg": 3337,
      "Ġunna": 3338,
      "Ġbikt": 3339,
      "htta": 3340,
      "ĠÄįakÄį": 3341,
      "ektor": 3342,
      "ĠlÃ¡ve": 3343,
      "ĠgÃ¡vdnojit": 3344,
      "olat": 3345,
      "urohp": 3346,
      "Ġvisot": 3347,
      "ĠkÃ¡r": 3348,
      "eaÅ¡": 3349,
      "Ġbal": 3350,
      "ttit": 3351,
      "ĠDanin": 3352,
      "ĠÃ¡hÄį": 3353,
      "Ġviel": 3354,
      "ĠlÃ¡giin": 3355,
      "Ġeatnama": 3356,
      "odagain": 3357,
      "ĠOvdd": 3358,
      "Ġbohccot": 3359,
      "ĠMarit": 3360,
      "eth": 3361,
      "Ġbuktit": 3362,
      "tÃ¡": 3363,
      "Ġvuordit": 3364,
      "Ã¡siid": 3365,
      "ban": 3366,
      "Ġbeasai": 3367,
      "ken": 3368,
      "irektevra": 3369,
      "Ġboras": 3370,
      "Ġdei": 3371,
      "idde": 3372,
      "argga": 3373,
      "Ġriik": 3374,
      "agaide": 3375,
      "ĠeanaÅ¡": 3376,
      "ĠCh": 3377,
      "oavdd": 3378,
      "Ã¡igeahÄįÄį": 3379,
      "iess": 3380,
      "iÅ¡Å¡": 3381,
      "Ã¡nÃ¡t": 3382,
      "Ġjournal": 3383,
      "ealÃ¡hus": 3384,
      "iesus": 3385,
      "evttoh": 3386,
      "Ġdilis": 3387,
      "Ġmeannud": 3388,
      "Ġmor": 3389,
      "if": 3390,
      "itte": 3391,
      "ssat": 3392,
      "ĠLarsen": 3393,
      "Ġoam": 3394,
      "ĠdÃ¡rogiel": 3395,
      "umuÅ¡": 3396,
      "ĠHar": 3397,
      "Ġovddit": 3398,
      "Ġguhkit": 3399,
      "ĠdÃ¡hpÃ¡huvvÃ¡": 3400,
      "uhta": 3401,
      "ĠfÃ¡r": 3402,
      "ĠElle": 3403,
      "ĠÃ¡iggiid": 3404,
      "ĠÃ¡lgit": 3405,
      "pmu": 3406,
      "ide": 3407,
      "Ġinf": 3408,
      "ĠÄįovd": 3409,
      "ĠbeaivÃ¡i": 3410,
      "ĠaddÃ¡n": 3411,
      "Ġsisdo": 3412,
      "ĠJesus": 3413,
      "ahkku": 3414,
      "htor": 3415,
      "ĠSp": 3416,
      "aÅ¡ta": 3417,
      "Ġguorah": 3418,
      "Ã¡vl": 3419,
      "ĠberoÅ¡": 3420,
      "ggot": 3421,
      "Ġfatn": 3422,
      "ĠFeFo": 3423,
      "ĠlÃ¡hka": 3424,
      "ĠvuoÄĳÄĳud": 3425,
      "Ġ27": 3426,
      "ĠOslos": 3427,
      "jat": 3428,
      "ĠBeaivv": 3429,
      "Ġgeatneg": 3430,
      "ĠÃ¡lggii": 3431,
      "Ġsotnab": 3432,
      "Ã¡bealde": 3433,
      "lea": 3434,
      "asas": 3435,
      "ĠIv": 3436,
      "ovdd": 3437,
      "Ġguov": 3438,
      "--": 3439,
      "ĠDii": 3440,
      "Ġikte": 3441,
      "ĠSuomas": 3442,
      "Ġvuoj": 3443,
      "Ã¡ÄĳÄĳehus": 3444,
      "Ġen": 3445,
      "ĠjahkÃ¡saÅ¡": 3446,
      "ĠSÃ¡mediggÃ¡i": 3447,
      "ĠvalÃ¡Å¡tallan": 3448,
      "uohke": 3449,
      "Ġdoaiv": 3450,
      "Ġovddast": 3451,
      "ĠdehÃ¡l": 3452,
      "ĠjÃ¡hke": 3453,
      "ĠBoine": 3454,
      "ĠÃ¡hÄįÄįi": 3455,
      "ula": 3456,
      "Ġeadni": 3457,
      "ĠVars": 3458,
      "Ã¡vp": 3459,
      "ĠÃ¡lgoÃ¡lbmot": 3460,
      "ĠÃģiggi": 3461,
      "uvttÃ¡": 3462,
      ",-": 3463,
      "Ġservodagas": 3464,
      "innmark": 3465,
      "Ġsaji": 3466,
      "Ġdievas": 3467,
      "ĠBerg": 3468,
      "Ġ26": 3469,
      "ĠdÃ¡rk": 3470,
      "Ġboazos": 3471,
      "ÂłÂł": 3472,
      "Ġguoll": 3473,
      "Ġvuogas": 3474,
      "Ġboastt": 3475,
      "Ġnannet": 3476,
      "Ġduohken": 3477,
      "Ġvuoitit": 3478,
      "Ġgird": 3479,
      "Eai": 3480,
      "âĢ¢": 3481,
      "Äįoahkkimis": 3482,
      "Ġgaskka": 3483,
      "ittot": 3484,
      "ideami": 3485,
      "inl": 3486,
      "ĠoahpÃ¡s": 3487,
      "Ġbohcco": 3488,
      "Ġbeivviid": 3489,
      "Ġbarget": 3490,
      "ĠÄįear": 3491,
      "ojuvvojit": 3492,
      "Ġrihkk": 3493,
      "eames": 3494,
      "Ġveh": 3495,
      "Ġoal": 3496,
      "vein": 3497,
      "ĠhÃ¡bm": 3498,
      "uolgg": 3499,
      "festivÃ¡la": 3500,
      "Ã¡htta": 3501,
      "ĠMon": 3502,
      "Ġfylkkas": 3503,
      "Ġdeaivvadit": 3504,
      "abealde": 3505,
      "ĠdÃ¡sis": 3506,
      "Ġadn": 3507,
      "nr": 3508,
      "bbÃ¡": 3509,
      "Ġso": 3510,
      "ĠÄįielgasit": 3511,
      "ĠpreassadieÄĳ": 3512,
      "ĠSolbakk": 3513,
      "ĠlunddolaÅ¡": 3514,
      "Ġmearras": 3515,
      "gad": 3516,
      "uks": 3517,
      "atti": 3518,
      "Ã¡sk": 3519,
      "Ġmusihka": 3520,
      "ĠSte": 3521,
      "Å¾Å¾at": 3522,
      "estaga": 3523,
      "Na": 3524,
      "rÃ¸": 3525,
      "ĠbeaivvÃ¡laÅ¡": 3526,
      "Ġoskk": 3527,
      "epartem": 3528,
      "NSR": 3529,
      "uohta": 3530,
      "ĠÄįuoig": 3531,
      "Åĭgg": 3532,
      "Ġoaivvild": 3533,
      "ĠjÃ¡hkkÃ¡": 3534,
      "ĠlÃ¡": 3535,
      "allu": 3536,
      "ultuv": 3537,
      "ddÃ¡i": 3538,
      "ĠlÃ¡hkÃ¡i": 3539,
      "Ã¡igi": 3540,
      "Ġgeavv": 3541,
      "ĠNilsen": 3542,
      "Ġjoatkit": 3543,
      "vttir": 3544,
      "ggii": 3545,
      "eavstt": 3546,
      "Ġhukset": 3547,
      "Ġdievdd": 3548,
      "ĠguoÄĳÄĳ": 3549,
      "urut": 3550,
      "ĠvÃ¡sihan": 3551,
      "Ã¡daga": 3552,
      "Ġdeavd": 3553,
      "Ġalla": 3554,
      "ĠdieÄĳut": 3555,
      "Ġgaskav": 3556,
      "ĠsÃ¡httÃ¡n": 3557,
      "gaskasaÅ¡": 3558,
      "ĠEriksen": 3559,
      "hild": 3560,
      "idnui": 3561,
      "edis": 3562,
      "eahta": 3563,
      "ĠbÃ¡ikkis": 3564,
      "iiv": 3565,
      "ĠÃ¡vkin": 3566,
      "Ġdiehto": 3567,
      "ĠvÃ¡ikkuhit": 3568,
      "bbat": 3569,
      "Ġsearvi": 3570,
      "uoll": 3571,
      "ĠGuovd": 3572,
      "kuvll": 3573,
      "Ġalcces": 3574,
      "Ġprof": 3575,
      "olitiij": 3576,
      "Ġof": 3577,
      "Ġoahpu": 3578,
      "Ġbuoridit": 3579,
      "ehii": 3580,
      "ĠmÃ¡Åĭgg": 3581,
      "Ġbaicca": 3582,
      "anger": 3583,
      "Ġnjuov": 3584,
      "ĠÃ¡igut": 3585,
      "Ġsiiddus": 3586,
      "ĠollaÅ¡": 3587,
      "Ġdaidda": 3588,
      "Ġsird": 3589,
      "ĠRiddu": 3590,
      "Ġoagg": 3591,
      "ĠÄįaÄĳah": 3592,
      "htast": 3593,
      "OR": 3594,
      "Ġbeale": 3595,
      "Ja": 3596,
      "jas": 3597,
      "Ġgovaid": 3598,
      "ĠSoai": 3599,
      "ĠÃ¡igodagas": 3600,
      "agassii": 3601,
      "AH": 3602,
      "Ġhuksen": 3603,
      "Ġkv": 3604,
      "eara": 3605,
      "ĠGÃ¡i": 3606,
      "LE": 3607,
      "Ġbargui": 3608,
      "Ġ2005": 3609,
      "uhttit": 3610,
      "uvnnat": 3611,
      "gel": 3612,
      "Ġoppa": 3613,
      "epolit": 3614,
      "Ġgeh": 3615,
      "ĠTrom": 3616,
      "ĠberoÅ¡tupmi": 3617,
      "Â´": 3618,
      "Ġlohket": 3619,
      "SIIDDUS": 3620,
      "ĠoÅ¾Å¾o": 3621,
      "ihke": 3622,
      "Ġloahpaha": 3623,
      "Ġoahppi": 3624,
      "Ã¡f": 3625,
      "DÃ¡": 3626,
      "Ġdeike": 3627,
      "osiÅ¡": 3628,
      "emii": 3629,
      "Ġortneg": 3630,
      "ON": 3631,
      "Ġvaj": 3632,
      "Ġgiev": 3633,
      "Ġgoitge": 3634,
      "vÃ¡ld": 3635,
      "Ġlohkan": 3636,
      "ĠAndersen": 3637,
      "ĠvÃ¡ldÃ¡": 3638,
      "tit": 3639,
      "abarg": 3640,
      "Ġnjul": 3641,
      "sy": 3642,
      "Ã¡mis": 3643,
      "ond": 3644,
      "httÃ¡": 3645,
      "ĠÃģÅ¡Å¡": 3646,
      "Ġovda": 3647,
      "Ġdohkkehit": 3648,
      "ĠHans": 3649,
      "ĠKir": 3650,
      "ĠfestivÃ¡l": 3651,
      "Ġet": 3652,
      "ÄĳÄĳasat": 3653,
      "Ġeakt": 3654,
      "Åĭkke": 3655,
      "juohk": 3656,
      "ĠmieÄĳih": 3657,
      "Ġgaskk": 3658,
      "ĠÃ¡dj": 3659,
      "allamiid": 3660,
      "ĠÄįilget": 3661,
      "venÅ¡": 3662,
      "ĠrahÄį": 3663,
      "Ġnieidda": 3664,
      "ĠjoÄĳÃ¡nit": 3665,
      "ĠÃ¡sahus": 3666,
      "ibm": 3667,
      "Â»,": 3668,
      "ĠgÃ¡ibidit": 3669,
      "but": 3670,
      "Ġcui": 3671,
      "ĠgÃ¡vdnan": 3672,
      "Ġres": 3673,
      "Ġfievrr": 3674,
      "ĠcealkÃ¡": 3675,
      "SÃ¡mediggi": 3676,
      "apor": 3677,
      "De": 3678,
      "rix": 3679,
      "aul": 3680,
      "ĠvÃ¡lddii": 3681,
      "ĠGrand": 3682,
      "kn": 3683,
      "ĠOskal": 3684,
      "-,": 3685,
      "ĠÃ¡igÃ¡i": 3686,
      "erÃ¡ÄĳÄĳi": 3687,
      "Ġolgorii": 3688,
      "earru": 3689,
      "une": 3690,
      "assan": 3691,
      "uimm": 3692,
      "Ġbargo": 3693,
      "oÄĳih": 3694,
      "Ġjoavkkus": 3695,
      "ĠÃ¡lggus": 3696,
      "ttir": 3697,
      "Ã¡saÄįÄįat": 3698,
      "Ã¡niid": 3699,
      "emÃ¡nus": 3700,
      "Ġjuovll": 3701,
      "uhuvvon": 3702,
      "ddji": 3703,
      "ĠUn": 3704,
      "Ġveahkkin": 3705,
      "iddja": 3706,
      "ĠgeahÄįÄįal": 3707,
      "Ġovdanbukt": 3708,
      "ĠPrix": 3709,
      "ĠÄįoahkkin": 3710,
      "kum": 3711,
      "Ã¡irras": 3712,
      "me": 3713,
      "ĠsÃ¡ddet": 3714,
      "ĠBiret": 3715,
      "Ġborg": 3716,
      "Ġtelef": 3717,
      "Ġorui": 3718,
      "ĠdÃ¡rogillii": 3719,
      "iidu": 3720,
      "fea": 3721,
      "uÅ¡Å¡e": 3722,
      "Ã¡Å¡Å¡i": 3723,
      "ĠÄįuohc": 3724,
      "ĠalmmÃ¡i": 3725,
      "ĠÃ¡rvvoÅ¡tallat": 3726,
      "iila": 3727,
      "ĠdÃ¡httu": 3728,
      "oroh": 3729,
      "ĠGuovdageaidnu": 3730,
      "lohku": 3731,
      "ĠgelddolaÅ¡": 3732,
      "Ã¡htten": 3733,
      "Norggas": 3734,
      "ĠÃ¡lkit": 3735,
      "Vuor": 3736,
      "ias": 3737,
      "ĠIL": 3738,
      "ĠsÃ¡ni": 3739,
      "ggotm": 3740,
      "Ġag": 3741,
      "ohc": 3742,
      "ĠgeahÄįÄįalan": 3743,
      "ugiid": 3744,
      "Ġvuodjit": 3745,
      "ggan": 3746,
      "raf": 3747,
      "Ġmiellag": 3748,
      "ĠAS": 3749,
      "ĠVuor": 3750,
      "Ġ2009": 3751,
      "Ġokto": 3752,
      "ffar": 3753,
      "Ġsuoidn": 3754,
      "nj": 3755,
      "ĠnuvttÃ¡": 3756,
      "bÃ¡l": 3757,
      "ĠGÃ¡r": 3758,
      "ĠfÃ¡dd": 3759,
      "ĠTuri": 3760,
      "Deanu": 3761,
      "Ġnju": 3762,
      "Ġoaivvildit": 3763,
      "ideapmi": 3764,
      "ĠOkta": 3765,
      "Ġrievdadit": 3766,
      "Ġust": 3767,
      "Äĳiid": 3768,
      "kur": 3769,
      "Ġliik": 3770,
      "kl": 3771,
      "ĠmearrÃ¡dus": 3772,
      "Ġgaska": 3773,
      "Ġbadj": 3774,
      "ĠgÃ¡rv": 3775,
      "amu": 3776,
      "ĠjÃ¡m": 3777,
      "ĠÃ¡innas": 3778,
      "eahtta": 3779,
      "Ġbuohkaid": 3780,
      "inar": 3781,
      "utn": 3782,
      "Stuor": 3783,
      "ĠMagga": 3784,
      "Ġaid": 3785,
      "ĠbearraÅ¡": 3786,
      "ĠjurddaÅ¡it": 3787,
      "ivvan": 3788,
      "Ġam": 3789,
      "ĠieÅ¡guÄĳetlÃ¡gan": 3790,
      "ĠbearaÅ¡": 3791,
      "Oahp": 3792,
      "Ġheiveh": 3793,
      "Ġvahkus": 3794,
      "Ġovdalgo": 3795,
      "ĠgiÄĳÄĳ": 3796,
      "ĠdÃ¡lv": 3797,
      "ĠvÃ¡stidit": 3798,
      "ejuvvot": 3799,
      "ĠmÃ¡tkkoÅ¡t": 3800,
      "Ġ31": 3801,
      "kkus": 3802,
      "Ġlistt": 3803,
      "uhis": 3804,
      "ivÄįÄįe": 3805,
      "kom": 3806,
      "ÄĳÄĳu": 3807,
      "ĠdÃ¡rkk": 3808,
      "ĠNystad": 3809,
      "uoÅĭom": 3810,
      "ĠJohnsen": 3811,
      "ĠgoalmmÃ¡t": 3812,
      "Ġveal": 3813,
      "Ġviess": 3814,
      "Ġissoras": 3815,
      "Ġdoaibma": 3816,
      "eahc": 3817,
      "ĠLu": 3818,
      "ST": 3819,
      "alusat": 3820,
      "ĠÃ¡hkk": 3821,
      "ĠCD": 3822,
      "etne": 3823,
      "Ġvuolde": 3824,
      "UL": 3825,
      "ĠBoa": 3826,
      ".Â»": 3827,
      "Ġdahket": 3828,
      "ĠâĢĿ": 3829,
      "Ġsoahp": 3830,
      "ĠBargiidbellodaga": 3831,
      "ttes": 3832,
      "Ġfilmma": 3833,
      "Ġstivr": 3834,
      "Ġbesse": 3835,
      "Ġvistt": 3836,
      "Ġ60": 3837,
      "ĠhÃ¡lddahus": 3838,
      "ardaga": 3839,
      "ĠjurddaÅ¡an": 3840,
      "Ã¡nii": 3841,
      "elas": 3842,
      "iÅ¡go": 3843,
      "Ġskohter": 3844,
      "Ġealgab": 3845,
      "Å¡add": 3846,
      "ihkar": 3847,
      "du": 3848,
      "kkit": 3849,
      "egis": 3850,
      "ĠRas": 3851,
      "evÃ¡ld": 3852,
      "ddii": 3853,
      "Ġdav": 3854,
      "ĠoÄĳÄĳajag": 3855,
      "anl": 3856,
      "Ã¡htar": 3857,
      "Ġgier": 3858,
      "kea": 3859,
      "Ġdearvv": 3860,
      "ĠearenoamÃ¡Å¡": 3861,
      "ĠÄįiekÄįam": 3862,
      "Ġsuol": 3863,
      "ĠbeakkÃ¡n": 3864,
      "imiid": 3865,
      "Ġvuoruhit": 3866,
      "iivvalaÅ¡": 3867,
      "Ġle": 3868,
      "Ġdagaha": 3869,
      "ĠRuoÅ¡Å¡a": 3870,
      "ĠoaÄįÄįut": 3871,
      "uvvet": 3872,
      "Ġferten": 3873,
      "ageidnui": 3874,
      "Ã¡lastit": 3875,
      "eahtas": 3876,
      "Ġpolitiijat": 3877,
      "Ġmiht": 3878,
      "ĠBie": 3879,
      "ĠIeÅ¡": 3880,
      "jis": 3881,
      "Ġoinn": 3882,
      "ĠrÃ¡hkis": 3883,
      "ĠhÃ¡rj": 3884,
      "ĠRuoÅ§as": 3885,
      "ĠoassÃ¡last": 3886,
      "uovllus": 3887,
      "alas": 3888,
      "ce": 3889,
      "Ġbuol": 3890,
      "ĠlÃ¡ga": 3891,
      "ĠgÃ¡ibida": 3892,
      "Ġgivss": 3893,
      "departem": 3894,
      "gus": 3895,
      "ĠdÃ¡in": 3896,
      "Buor": 3897,
      "ideaddji": 3898,
      "ĠvÃ¡stidii": 3899,
      "ĠdearvvaÅ¡vuoÄĳa": 3900,
      "old": 3901,
      "skka": 3902,
      "Ġboazodoalus": 3903,
      "Ġgirku": 3904,
      "Ġollis": 3905,
      "Suom": 3906,
      "Ã¡rv": 3907,
      "ĠÄįorg": 3908,
      "Ġdikt": 3909,
      "Ġboazodoallu": 3910,
      "ĠÄįuojahit": 3911,
      "ET": 3912,
      "Ġhirpm": 3913,
      "Ġgor": 3914,
      "\".": 3915,
      "Ġorrut": 3916,
      "ĠDieÄĳ": 3917,
      "ĠNBR": 3918,
      "Ġgalge": 3919,
      "ĠvÃ¡ikkuh": 3920,
      "ajoÄĳiheaddji": 3921,
      "kas": 3922,
      "Ġmoai": 3923,
      "Ġnr": 3924,
      "Ġfitnodat": 3925,
      "ĠboahtteÃ¡iggis": 3926,
      "eallÃ¡i": 3927,
      "ĠÄįÃ¡jÃ¡hus": 3928,
      "Ġgoar": 3929,
      "Ġreivv": 3930,
      "Ġsihkar": 3931,
      "25": 3932,
      "ĠoÄįÄį": 3933,
      "OL": 3934,
      "bi": 3935,
      "ĠÃ¡igumuÅ¡": 3936,
      "eahkk": 3937,
      "iduvvo": 3938,
      "Ã¡but": 3939,
      "Ġoaivil": 3940,
      "Ġguovv": 3941,
      "Ġdoaimma": 3942,
      "Sii": 3943,
      "amiin": 3944,
      "ĠboaÄĳe": 3945,
      "ĠÅ¡iehtad": 3946,
      "ihii": 3947,
      "irektor": 3948,
      "Don": 3949,
      "vnn": 3950,
      "ddit": 3951,
      "Nils": 3952,
      "igi": 3953,
      "ensen": 3954,
      "ĠskÃ¡bm": 3955,
      "Ġerenom": 3956,
      "allamat": 3957,
      "Ã¡kt": 3958,
      "odoaimm": 3959,
      "estii": 3960,
      "ologalaÅ¡": 3961,
      "abeal": 3962,
      "gÃ¡i": 3963,
      "ĠMÃ¡tta": 3964,
      "ĠbÃ¡iken": 3965,
      "skuvlla": 3966,
      "ĠaÅĭkke": 3967,
      "Ã¡laÅ¾Å¾an": 3968,
      "Ġbat": 3969,
      "Ġvigg": 3970,
      "eig": 3971,
      "obi": 3972,
      "Ġcelkkii": 3973,
      "ĠBoaz": 3974,
      "Ġdattet": 3975,
      "Ġ2007": 3976,
      "uoss": 3977,
      "irk": 3978,
      "ĠrÃ¡vv": 3979,
      "Ġgoll": 3980,
      "Ovd": 3981,
      "Ãģr": 3982,
      "imiin": 3983,
      "Ġ2008": 3984,
      "mmaid": 3985,
      "Ġdattetge": 3986,
      "ĠdiehtÃ¡": 3987,
      "ĠjÃ¡hkÃ¡n": 3988,
      "ĠJuo": 3989,
      "ĠRisten": 3990,
      "ĠseammÃ¡": 3991,
      "Ġbargosaj": 3992,
      "ĠnjÃ¡lmm": 3993,
      "eÅ¾": 3994,
      "Ġipmil": 3995,
      "Ġsil": 3996,
      "ĠvÃ¡ldet": 3997,
      "Ġdoalahit": 3998,
      "Ġsearvego": 3999,
      "Ġident": 4000,
      "ĠNorga": 4001,
      "Ġvuovdit": 4002,
      "aheami": 4003,
      "olbmo": 4004,
      "Ġnagodan": 4005,
      "Ġdagahit": 4006,
      "mmÃ¡s": 4007,
      "Ġdoarjut": 4008,
      "Ġnor": 4009,
      "Ġmanin": 4010,
      "ĠdÃ¡ns": 4011,
      "err": 4012,
      "oneavv": 4013,
      "gget": 4014,
      "Ġoainnu": 4015,
      "ĠGuovdageidnui": 4016,
      "ĠprivÃ¡hta": 4017,
      "Ġovttaoaiv": 4018,
      "MÃģ": 4019,
      "iehtt": 4020,
      "ĠmiessemÃ¡nu": 4021,
      "estit": 4022,
      "fr": 4023,
      "ĠdaÄĳi": 4024,
      "Ġ78": 4025,
      "ĠvÃ¡ikkuhus": 4026,
      "ĠNie": 4027,
      "Ġba": 4028,
      "ĠGiel": 4029,
      "Ġnjunn": 4030,
      "Ġlobih": 4031,
      "An": 4032,
      "ojuvvui": 4033,
      "ĠprogrÃ¡mma": 4034,
      "iikk": 4035,
      "agii": 4036,
      "osten": 4037,
      "Ġdiimmu": 4038,
      "Ġnjui": 4039,
      "Ġduol": 4040,
      "Ġduorastaga": 4041,
      "andoall": 4042,
      "ĠÃ¡lggos": 4043,
      "ĠMo": 4044,
      "Ã¦r": 4045,
      "SÃ¡medikki": 4046,
      "eaivve": 4047,
      "httin": 4048,
      "ĠoÄĳÄĳasit": 4049,
      "ĠLars": 4050,
      "Ġguovl": 4051,
      "ĠAle": 4052,
      "ohÃ¡ldd": 4053,
      "tin": 4054,
      "Ġmiellagidde": 4055,
      "ahku": 4056,
      "Ġoassin": 4057,
      "Sk": 4058,
      "ĠhÃ¡liidan": 4059,
      "Ġlohpi": 4060,
      "Ġlon": 4061,
      "Ġbiil": 4062,
      "Ġsudno": 4063,
      "eid": 4064,
      "ĠIsra": 4065,
      "Ġboraspir": 4066,
      "Ã¡lbmot": 4067,
      "Ġdivv": 4068,
      "Nj": 4069,
      "amp": 4070,
      "ĠOlbmot": 4071,
      "tnet": 4072,
      "eaht": 4073,
      "uÄĳui": 4074,
      "ĠvahÃ¡g": 4075,
      "Ġovdii": 4076,
      "ĠdÃ¡hk": 4077,
      "ĠvÃ¡hnemat": 4078,
      "Ġ&": 4079,
      "Ean": 4080,
      "Ã¡tnejoÄĳiheaddji": 4081,
      "Ġohppiid": 4082,
      "ĠÃ¡vÅ¾Å¾uha": 4083,
      "ĠÄįieÅ¾a": 4084,
      "Ã¡httÃ¡": 4085,
      "Ã¡hkka": 4086,
      "Ġ:": 4087,
      "Ġcuigg": 4088,
      "Ġduopm": 4089,
      "Ã¡rrÃ¡i": 4090,
      "ite": 4091,
      "Ġviss": 4092,
      "Ã¡sis": 4093,
      "Ġleansm": 4094,
      "rralaÅ¡": 4095,
      "ĠÃ¡lget": 4096,
      "ĠdearvvaÅ¡vuoÄĳ": 4097,
      "Ã¡lle": 4098,
      "ĠNiillas": 4099,
      "aris": 4100,
      "Ġduost": 4101,
      "hel": 4102,
      "ĠgohÄįÄį": 4103,
      "httu": 4104,
      "emi": 4105,
      "htut": 4106,
      "ĠfÃ¡tt": 4107,
      "Ã¡hppa": 4108,
      "Ġjearrat": 4109,
      "Ã¡mmÃ¡r": 4110,
      "eann": 4111,
      "Jos": 4112,
      "ĠÃ¡lgoÃ¡lbmogiid": 4113,
      "ĠÄįujuha": 4114,
      "ĠUl": 4115,
      "Ġoinnii": 4116,
      "ĠPett": 4117,
      "ĠoÄĳasm": 4118,
      "httet": 4119,
      "ĠfÃ¡pm": 4120,
      "ĠKÃ¡rÃ¡Å¡johkii": 4121,
      "Ġvuolgg": 4122,
      "Ġdasgo": 4123,
      "Ġgulask": 4124,
      "ĠgehÄįÄį": 4125,
      "ĠvajÃ¡ld": 4126,
      "oplÃ¡n": 4127,
      "Johan": 4128,
      "Ruo": 4129,
      "Ġfargga": 4130,
      "ĠBuor": 4131,
      "ĠSoa": 4132,
      "Ġhot": 4133,
      "Ġposit": 4134,
      "ĠdiekkÃ¡r": 4135,
      "ĠFylkk": 4136,
      "abivd": 4137,
      "ttain": 4138,
      "ejeaddji": 4139,
      "ĠÄįatn": 4140,
      "Vaikko": 4141,
      "guvlui": 4142,
      "40": 4143,
      "adat": 4144,
      "Ġkm": 4145,
      "uhk": 4146,
      "ĠviidÃ¡seappot": 4147,
      "ĠgÃ¡rÅ¾Å¾": 4148,
      "Ġgeahp": 4149,
      "eanttat": 4150,
      "ĠovddasvÃ¡stÃ¡dusa": 4151,
      "ĠsÃ¡dden": 4152,
      "Ġrom": 4153,
      "ĠvÃ¡stida": 4154,
      "Ġdokum": 4155,
      "Ġguld": 4156,
      "Ġbeasat": 4157,
      "Ġ2000": 4158,
      "ĠduoÄĳas": 4159,
      "Ġoast": 4160,
      "Ġgulahallan": 4161,
      "ber": 4162,
      "mmu": 4163,
      "Ġalmmuhit": 4164,
      "Juo": 4165,
      "ĠvÃ¡lljet": 4166,
      "ĠNordlys": 4167,
      "evÃ¡l": 4168,
      "ĠÄįÃ¡ppa": 4169,
      "ation": 4170,
      "ĠSÃ¡me": 4171,
      "kantuv": 4172,
      "Mannan": 4173,
      "eat": 4174,
      "Ġdagai": 4175,
      "ogi": 4176,
      "Ġilus": 4177,
      "ise": 4178,
      "ĠVarsi": 4179,
      "ĠHer": 4180,
      "allamii": 4181,
      "Ġloss": 4182,
      "ĠJer": 4183,
      "ĠÄįÃ¡llin": 4184,
      "ĠrÃ¡hkaduvvon": 4185,
      "ĠjoÄĳus": 4186,
      "ÃģÅł": 4187,
      "oÅ¡ii": 4188,
      "ĠlÃ¡gida": 4189,
      "iivva": 4190,
      "Ġnuo": 4191,
      "HKA": 4192,
      "Ġvil": 4193,
      "ĠDÃ¡id": 4194,
      "jÃ¡rggas": 4195,
      "ĠbÃ¡z": 4196,
      "ĠMÃ¡htte": 4197,
      "alat": 4198,
      "ĠÃ¡lbmogii": 4199,
      "ĠlÃ¡dje": 4200,
      "ddjÃ¡": 4201,
      "Ġdovdat": 4202,
      "enis": 4203,
      "ahl": 4204,
      "ĠON": 4205,
      "ĠMaÅĭÅĭ": 4206,
      "Ġfylkkagiel": 4207,
      "ĠnÃ¡vccaid": 4208,
      "Ġriikkas": 4209,
      "Ġkultuvra": 4210,
      "ĠÄįoavdit": 4211,
      "jÃ¡i": 4212,
      "Ġeroh": 4213,
      "Ġgolggotm": 4214,
      "Ġdaddj": 4215,
      "GG": 4216,
      "ĠGe": 4217,
      "jÃ¡rgga": 4218,
      "mi": 4219,
      "ahttu": 4220,
      "Su": 4221,
      "fÃ¡lald": 4222,
      "agab": 4223,
      "Ġeatnamiid": 4224,
      "Ã¡hcc": 4225,
      "ĠsÃ¡vvat": 4226,
      "Ġnubbin": 4227,
      "Ġeallimis": 4228,
      "ĠEat": 4229,
      "Ġoahpahit": 4230,
      "utkan": 4231,
      "Ġdubm": 4232,
      "Ġalbm": 4233,
      "Ġdoaimmat": 4234,
      "Ġeaba": 4235,
      "aji": 4236,
      "Ġleai": 4237,
      "Ġrapor": 4238,
      "Ġvuohki": 4239,
      "Ġgei": 4240,
      "Ġbargit": 4241,
      "ĠBar": 4242,
      "Dii": 4243,
      "ĠvuoÄĳÄĳun": 4244,
      "Ġsakka": 4245,
      "ĠOÄĳÄĳa": 4246,
      "urr": 4247,
      "ĠÃ¡vii": 4248,
      ".-": 4249,
      "ĠFil": 4250,
      "Ġevttohus": 4251,
      "Äįoahkkima": 4252,
      "ĠmearrÃ¡dusa": 4253,
      "ha": 4254,
      "ĠSvein": 4255,
      "ĠGovven": 4256,
      "ĠvÃ¡ttisvuoÄĳaid": 4257,
      "ĠRasmus": 4258,
      "NU": 4259,
      "Ġwww": 4260,
      "199": 4261,
      "ĠPaul": 4262,
      "Ã¡pmÃ¡i": 4263,
      "ĠhÃ¡stalus": 4264,
      "lÃ¡g": 4265,
      "ked": 4266,
      "kkiin": 4267,
      "Ġrektor": 4268,
      "Ġdievva": 4269,
      "Ġservodaga": 4270,
      "ĠsÃ¡mepolit": 4271,
      "Ġguokt": 4272,
      "Ġvuvd": 4273,
      "Ġnai": 4274,
      "ĠOr": 4275,
      "MÃ¡": 4276,
      "Ġuh": 4277,
      "Ġfidn": 4278,
      "oavkkus": 4279,
      "Duo": 4280,
      "aduvvon": 4281,
      "Ġdoarjj": 4282,
      "ĠÄįuv": 4283,
      "askas": 4284,
      "isttaid": 4285,
      "alv": 4286,
      "ĠÄįalmmusta": 4287,
      "Ġmon": 4288,
      "Ġoahpahusa": 4289,
      "Ã¡vrri": 4290,
      "ĠStat": 4291,
      "ĠÄįoahkkimis": 4292,
      "Ã¡ssa": 4293,
      "uohkat": 4294,
      "ore": 4295,
      "ortneg": 4296,
      "iÅĭg": 4297,
      "adoall": 4298,
      "ikkis": 4299,
      "imusat": 4300,
      "ĠbuktÃ¡": 4301,
      "ER": 4302,
      "Ġleamen": 4303,
      "ĠsÃ¡vvÃ¡": 4304,
      "Ġduddj": 4305,
      "Ġboazolog": 4306,
      "ĠcealkÃ¡muÅ¡": 4307,
      "eak": 4308,
      "ddjiid": 4309,
      "Ġrievttes": 4310,
      "AÅł": 4311,
      "ĠpÃ¥": 4312,
      "ĠdÃ¡hpÃ¡huvvan": 4313,
      "obier": 4314,
      "bir": 4315,
      "Ġmudd": 4316,
      "ĠÃ¡lgÃ¡n": 4317,
      "ĠMan": 4318,
      "ĠdÃ¡sa": 4319,
      "ĠmÃ¡il": 4320,
      "eanttain": 4321,
      "Ġloahpp": 4322,
      "progrÃ¡mma": 4323,
      "Ã©": 4324,
      "Å¡ii": 4325,
      "etge": 4326,
      "Ġdiet": 4327,
      "istr": 4328,
      "hoavda": 4329,
      "ustr": 4330,
      "igo": 4331,
      "Ġdepartem": 4332,
      "vaÄįÄįat": 4333,
      "ĠOahp": 4334,
      "isa": 4335,
      "laÄįÄįat": 4336,
      "Ġgus": 4337,
      "ĠcuoÅĭom": 4338,
      "per": 4339,
      "astii": 4340,
      "ĠDag": 4341,
      "ĠvieÅ¾Å¾at": 4342,
      "Ġjearai": 4343,
      "gut": 4344,
      "Ã¡riin": 4345,
      "atiiva": 4346,
      "Ã¡lat": 4347,
      "iidn": 4348,
      "VL": 4349,
      "Ġsemin": 4350,
      "Ã¡lm": 4351,
      "ĠmaÅĭis": 4352,
      "assen": 4353,
      "Ġfitnat": 4354,
      "ggiin": 4355,
      "uodjalus": 4356,
      "VUO": 4357,
      "joavku": 4358,
      "ĠbÃ¡ikki": 4359,
      "ĠIng": 4360,
      "ĠPie": 4361,
      "Ġnjuolga": 4362,
      "dduin": 4363,
      "istaga": 4364,
      "Ġ2010": 4365,
      "ĠimaÅ¡": 4366,
      "ĠnÃ¡it": 4367,
      "ĠearÃ¡ide": 4368,
      "ĠÅ¡atta": 4369,
      "ĠÃ¡vvudit": 4370,
      "sp": 4371,
      "ĠrÃ¡j": 4372,
      "Ġfier": 4373,
      "rasat": 4374,
      "ĠproÅ¡eavtt": 4375,
      "aheapmi": 4376,
      "ĠMÃ¡ze": 4377,
      "Ġdiehtojuohk": 4378,
      "ĠHÃ¥": 4379,
      "ĠKon": 4380,
      "Ã¡Äĳis": 4381,
      "ossa": 4382,
      "Ġviimmat": 4383,
      "ikio": 4384,
      "ihtu": 4385,
      "eaÅ¡ttir": 4386,
      "ĠoalÃ¡t": 4387,
      "ĠsÃ¡l": 4388,
      "Ġeavtt": 4389,
      "Govva": 4390,
      "Ġgeaidn": 4391,
      "Ġdohkket": 4392,
      "ĠgeaÄĳ": 4393,
      "ologiija": 4394,
      "60": 4395,
      "mearr": 4396,
      "Ġskuvlii": 4397,
      "Ġdigg": 4398,
      "ĠvejolaÅ¡vuoÄĳaid": 4399,
      "ĠhÃ¡lddaÅ¡it": 4400,
      ".:": 4401,
      "24": 4402,
      "osiin": 4403,
      "Ġovttasbarggu": 4404,
      "doaimm": 4405,
      "ĠAndr": 4406,
      "kku": 4407,
      "ttii": 4408,
      "Ġnjun": 4409,
      "hus": 4410,
      "Ġrigg": 4411,
      "Ġfea": 4412,
      "Ġdivrras": 4413,
      "Ġlobi": 4414,
      "Ġdiehtu": 4415,
      "aska": 4416,
      "ĠjÃ¡vk": 4417,
      "alÃ¡g": 4418,
      "ĠSand": 4419,
      "Ġgielddastiv": 4420,
      "uhttin": 4421,
      "ĠimaÅ¡t": 4422,
      "ĠlÃ¡vvordaga": 4423,
      "Ġguorahallat": 4424,
      "ĠberoÅ¡tumi": 4425,
      "tr": 4426,
      "Ġos": 4427,
      "ĠThom": 4428,
      "uovlluin": 4429,
      "Ġbeali": 4430,
      "ĠhÃ¡leÅ¡": 4431,
      "Ã¡lddaÅ¡": 4432,
      "ĠnuppÃ¡st": 4433,
      "ĠRo": 4434,
      "oarjaga": 4435,
      "ĠAili": 4436,
      "Ã¤n": 4437,
      "Ã¡jit": 4438,
      "FinnmÃ¡rkkus": 4439,
      "bas": 4440,
      "ĠduoÄĳalaÅ¡": 4441,
      "ĠÃ¡lgoÃ¡lbmog": 4442,
      "Ġviesu": 4443,
      "ahis": 4444,
      "uokte": 4445,
      "Ġboahtt": 4446,
      "ihtii": 4447,
      "Ġkomment": 4448,
      "isu": 4449,
      "ĠhÃ¡lidit": 4450,
      "upp": 4451,
      "Ġgalgan": 4452,
      "Ġmusea": 4453,
      "Ġneavtt": 4454,
      "ĠKjell": 4455,
      "Ġas": 4456,
      "ĠÄįiÅĭ": 4457,
      "ĠhÃ¡lid": 4458,
      "eavtt": 4459,
      "ĠBjÃ¸rn": 4460,
      "ĠJÃ¡hk": 4461,
      "Ġeks": 4462,
      "Romssa": 4463,
      "Ġbag": 4464,
      "ĠGunn": 4465,
      "emearri": 4466,
      "Ġevttohusa": 4467,
      "Ġrohk": 4468,
      "Ġbargob": 4469,
      "ĠÃ¡iggo": 4470,
      "ĠbÃ¡v": 4471,
      "ĠproÅ¡eavtta": 4472,
      "Ġgirkus": 4473,
      "ĠÄįÃ¡lii": 4474,
      "yst": 4475,
      "Ġdis": 4476,
      "Ear": 4477,
      "tto": 4478,
      "Ġboazodollui": 4479,
      "Ġfriddja": 4480,
      "OA": 4481,
      "Ġov": 4482,
      "ĠsÃ¡rtn": 4483,
      "LÃ¡g": 4484,
      "ĠbÃ¡lkkaÅ¡umi": 4485,
      "Ġon": 4486,
      "Ġguoimm": 4487,
      "Ġolbmuiguin": 4488,
      "ĠÄįoavdd": 4489,
      "Ġboar": 4490,
      "ĠEurohp": 4491,
      "Ġolis": 4492,
      "ĠLii": 4493,
      "Ġguhtta": 4494,
      "ĠIss": 4495,
      "ĠdÃ¡lvvi": 4496,
      "Ġnagodit": 4497,
      "ĠLeavnn": 4498,
      "Ġ2006": 4499,
      "Ġgum": 4500,
      "Ġaiddo": 4501,
      "Ġjuog": 4502,
      "Davv": 4503,
      "Muht": 4504,
      "Ġra": 4505,
      "Ġtekn": 4506,
      "agirjj": 4507,
      "ielas": 4508,
      "Ġdoaluid": 4509,
      "uovttos": 4510,
      "ddiid": 4511,
      "Ġvulggii": 4512,
      "organ": 4513,
      "ĠOhcejoga": 4514,
      "br": 4515,
      "guovdd": 4516,
      "Ġsuohtas": 4517,
      "Ġsi": 4518,
      "ĠmÃ¡Åĭgii": 4519,
      "Ġbuvttad": 4520,
      "ĠVal": 4521,
      "Ġfiinna": 4522,
      "Ã¡ha": 4523,
      "Ġrievss": 4524,
      "Ġipmirdit": 4525,
      "Ġbargi": 4526,
      "Ã¡ldas": 4527,
      "obealde": 4528,
      "Ġbiehtt": 4529,
      "Ġohcc": 4530,
      "ĠfÃ¡rus": 4531,
      "ski": 4532,
      "Ġ80": 4533,
      "ĠduoÄĳaÅ¡tit": 4534,
      "Ġbass": 4535,
      "amaid": 4536,
      "Ġkom": 4537,
      "ĠdÃ¡rbbaÅ¡a": 4538,
      "ĠoassevÃ¡ld": 4539,
      "Ġmuohta": 4540,
      "arat": 4541,
      "Ġnan": 4542,
      "eÄį": 4543,
      "nÃ¡": 4544,
      "Ġfuobm": 4545,
      "Ġduodje": 4546,
      "ĠeamiÃ¡lbmot": 4547,
      "Ġjurdda": 4548,
      "ÄįÃ¡jÃ¡hus": 4549,
      "Ġluohtt": 4550,
      "ÄįiekÄįam": 4551,
      "Ġdavvin": 4552,
      "Ġillud": 4553,
      "njÃ¡rggas": 4554,
      "ĠjearrÃ¡": 4555,
      "Ġalmmuhan": 4556,
      "Ġsadji": 4557,
      "lf": 4558,
      "Ġmearridii": 4559,
      "Ġattii": 4560,
      "ĠOarje": 4561,
      "ĠÃģnne": 4562,
      "Ġnjoa": 4563,
      "ĠotnÃ¡": 4564,
      "eÃ¡hter": 4565,
      "ater": 4566,
      "ĠGii": 4567,
      "kel": 4568,
      "Ġmed": 4569,
      "Åĭa": 4570,
      "onagas": 4571,
      "Ġhum": 4572,
      "abargg": 4573,
      "Ã¡mit": 4574,
      "Ġviidd": 4575,
      "Ġgulaskudd": 4576,
      "Ġliiko": 4577,
      "EN": 4578,
      "ĠlassÃ¡nan": 4579,
      "ĠpreassadieÄĳÃ¡husas": 4580,
      "ĠsÃ¡nit": 4581,
      "................................": 4582,
      "ĠmiellagiddevaÅ¡": 4583,
      "TT": 4584,
      "Ġguldal": 4585,
      "ÄĲA": 4586,
      "ten": 4587,
      "ĠBa": 4588,
      "ĠKa": 4589,
      "Ġdoalut": 4590,
      "Ã¡nat": 4591,
      "agasa": 4592,
      "ĠdikÅ¡": 4593,
      "Ġpsy": 4594,
      "ĠearÃ¡l": 4595,
      "Ġealli": 4596,
      "Ġ70": 4597,
      "ĠborramuÅ¡": 4598,
      "Ġgudn": 4599,
      "ĠfÃ¡llat": 4600,
      "agnhild": 4601,
      "ĠplÃ¡na": 4602,
      "ttÃ¡": 4603,
      "edag": 4604,
      "ĠvelÃ¡": 4605,
      "Ġrehken": 4606,
      "ĠÄįÃ¡jehan": 4607,
      "Ġdoarjja": 4608,
      "ĠBeaivvÃ¡Å¡": 4609,
      "Ã¡dit": 4610,
      "Ġdihto": 4611,
      "ĠluoÄĳi": 4612,
      "ilje": 4613,
      "Ġriika": 4614,
      "Ġsihkkel": 4615,
      "ĠgÃ¡dj": 4616,
      "str": 4617,
      "Ġoanehis": 4618,
      "ĠÃ¡kk": 4619,
      "fil": 4620,
      "ivuo": 4621,
      "ĠgeassemÃ¡nu": 4622,
      "ĠbÃ¡htar": 4623,
      "ĠÃ¡hk": 4624,
      "Ã¡httu": 4625,
      "vuohki": 4626,
      "yp": 4627,
      "Ġiskk": 4628,
      "mÃ¡n": 4629,
      "uoht": 4630,
      "Ġgulah": 4631,
      "Ġbiila": 4632,
      "vuoigatvuoÄĳaid": 4633,
      "ĠgokÄį": 4634,
      "Ġdar": 4635,
      "ĠdiehtÃ¡n": 4636,
      "ĠsÃ¡htÃ¡Å¡ii": 4637,
      "Ġovttasbargu": 4638,
      "ĠÃģvvirii": 4639,
      "ĠgohÄįodit": 4640,
      "Ġmovttiid": 4641,
      "vo": 4642,
      "07": 4643,
      "mear": 4644,
      "Ġbiilla": 4645,
      "Ġhoavda": 4646,
      "Ġsuinna": 4647,
      "ĠgÃ¡vpogis": 4648,
      "ĠdieÄĳihan": 4649,
      "Ġjuovllaid": 4650,
      "sttas": 4651,
      "reg": 4652,
      "ĠÄįik": 4653,
      "Ġfertii": 4654,
      "Ġjorgal": 4655,
      "ivÅ¡Å¡": 4656,
      "bl": 4657,
      "ugiin": 4658,
      "aldat": 4659,
      "Mar": 4660,
      "for": 4661,
      "ĠAnÃ¡r": 4662,
      "ĠmÃ¡httu": 4663,
      "arlam": 4664,
      "Ġlagab": 4665,
      "vvira": 4666,
      "ehket": 4667,
      "ĠgieÄĳah": 4668,
      "Ã¡vrris": 4669,
      "ĠFinnmark": 4670,
      "ĠmÃ¡tk": 4671,
      "ĠduhÃ¡t": 4672,
      "ĠNordlÃ¡n": 4673,
      "Ã¡pmelaÅ¡": 4674,
      "aÅ¡it": 4675,
      "Ã¡lloÅ¡": 4676,
      "ĠbÃ¡ikkiin": 4677,
      "ĠbajÃ¡sÅ¡add": 4678,
      "Ġbargiid": 4679,
      "Ġeanan": 4680,
      "Die": 4681,
      "ĠSÃ¡r": 4682,
      "Ġgeaid": 4683,
      "iesu": 4684,
      "ĠJosef": 4685,
      "ĠÃģlbmot": 4686,
      "Boa": 4687,
      "Ġbl": 4688,
      "aÅ¡uvdna": 4689,
      "Ġgr": 4690,
      "ĠbeassÃ¡Å¡": 4691,
      "ugat": 4692,
      "kkiid": 4693,
      "Ġipmird": 4694,
      "GUO": 4695,
      "Ã¡nd": 4696,
      "ĉĉ": 4697,
      "ĠJÃ¸r": 4698,
      "ÃģN": 4699,
      "OÄĳÄĳasat": 4700,
      "onis": 4701,
      "end": 4702,
      "Ġsuopm": 4703,
      "Ġjietn": 4704,
      "ette": 4705,
      "Ġmannet": 4706,
      "Mus": 4707,
      "ivddu": 4708,
      "ĠRa": 4709,
      "ĠsÃ¡tni": 4710,
      "Ġborrat": 4711,
      "uvdnii": 4712,
      "HKK": 4713,
      "ĠnjukÄįamÃ¡nu": 4714,
      "ĠOdd": 4715,
      "Ġnavd": 4716,
      "ĠsosiÃ¡la": 4717,
      "Ġbijai": 4718,
      "Ġheaittihit": 4719,
      "fin": 4720,
      "ehis": 4721,
      "rru": 4722,
      "illÃ¡i": 4723,
      "ĠmÃ¡l": 4724,
      "Ã¡ide": 4725,
      "ĠOll": 4726,
      "Ġoainnat": 4727,
      "JOHKA": 4728,
      "Ohc": 4729,
      "Ġgeainnu": 4730,
      "Ġgirji": 4731,
      "ĠÃ¡rbevier": 4732,
      "ĠriikkaidgaskasaÅ¡": 4733,
      "ovas": 4734,
      "Ġdem": 4735,
      "Ġoahpponeavv": 4736,
      "ĠNÃ¡": 4737,
      "ĠdassÃ¡i": 4738,
      "ĠvaÅ¡": 4739,
      "Ġresur": 4740,
      "eaiggÃ¡d": 4741,
      "Ġdirektevra": 4742,
      "ĠCup": 4743,
      "Ġjahke": 4744,
      "ĠfÃ¡laldaga": 4745,
      "plÃ¡na": 4746,
      "ĠÃģig": 4747,
      "amiidda": 4748,
      "eli": 4749,
      "Ġgiit": 4750,
      "iÅ¡uvnna": 4751,
      "ĠÃģv": 4752,
      "ĠSiri": 4753,
      "ĠKirst": 4754,
      "ĠLuon": 4755,
      "iellan": 4756,
      "ĠÄįÃ¡jehuvvo": 4757,
      "Å§a": 4758,
      "29": 4759,
      "ĠSkum": 4760,
      "Ġgai": 4761,
      "ĠmÃ¡ksÃ¡": 4762,
      "Ġmehtera": 4763,
      "ĠVÃ¡r": 4764,
      "ĠUnjÃ¡rgga": 4765,
      "Ġmielddis": 4766,
      "ĠolbmÃ¡": 4767,
      "ova": 4768,
      "Ġviehk": 4769,
      "05": 4770,
      "eter": 4771,
      "irji": 4772,
      "ĠbistÃ¡": 4773,
      "ther": 4774,
      "Ġsiida": 4775,
      "Ġ2004": 4776,
      "IEL": 4777,
      "GO": 4778,
      "radi": 4779,
      "oma": 4780,
      "ageav": 4781,
      "uolÃ¡st": 4782,
      "ĠVuosttaÅ¡": 4783,
      "Astrid": 4784,
      "Ġopm": 4785,
      "ĠdoaibmÃ¡": 4786,
      "Ġordn": 4787,
      "upm": 4788,
      "Ġdaj": 4789,
      "Ġbissehit": 4790,
      "Ġleago": 4791,
      "agiela": 4792,
      "ĠbÃ¡hcÃ¡n": 4793,
      "ĠrÃ¡Åĭgg": 4794,
      "ĠOvdamear": 4795,
      "uovlu": 4796,
      "Ġsub": 4797,
      "ĠdÃ¡ruid": 4798,
      "Ġbiddjon": 4799,
      "ĠrÃ¡hkkan": 4800,
      "Ġsearvvis": 4801,
      "Ġgirjjiid": 4802,
      "olaÅ¾Å¾an": 4803,
      "be": 4804,
      "ĠÂł": 4805,
      "Ã¡iggis": 4806,
      "umf": 4807,
      "Ġsuohkanstiv": 4808,
      "eddjiin": 4809,
      "Ar": 4810,
      "ĠgÃ¡nn": 4811,
      "Ã¡Å¡Å¡iid": 4812,
      "Ġrahpp": 4813,
      "ĠKÃ¥": 4814,
      "Ġovttaoaivilis": 4815,
      "ĠduoÄĳaÅ¡ta": 4816,
      "ĠDasto": 4817,
      "Ġvuoruh": 4818,
      "agoÄĳii": 4819,
      "ĠguovvamÃ¡nu": 4820,
      "ĠÅ¡adde": 4821,
      "rejit": 4822,
      "oakt": 4823,
      "ggain": 4824,
      "Ġvuogi": 4825,
      "ive": 4826,
      "uni": 4827,
      "Ġnuort": 4828,
      "ĠsuoidnemÃ¡nu": 4829,
      "Ġjuoigan": 4830,
      "ĠgalggaÅ¡e": 4831,
      "kol": 4832,
      "Ġlasiha": 4833,
      "ĠboaÄĳus": 4834,
      "Ġdeadd": 4835,
      "alaÄįÄįaid": 4836,
      "ega": 4837,
      "Ġgeargan": 4838,
      "ktalaÅ¡": 4839,
      "ĠÄįakÄįamÃ¡nu": 4840,
      "ĠMos": 4841,
      "elis": 4842,
      "Ã¤Ã¤": 4843,
      "ĠgoappaÅ¡": 4844,
      "iÅ¡goahtit": 4845,
      "Ġgalggat": 4846,
      "Ã¡hces": 4847,
      "han": 4848,
      "Ġco": 4849,
      "Ã¡pmelaÄįÄįat": 4850,
      "ĠhÃ¡hk": 4851,
      "Ġeanas": 4852,
      "ĠlÃ¡vlut": 4853,
      "ivnn": 4854,
      "Ġdadjan": 4855,
      "Ġguovlluid": 4856,
      "amÃ¡nus": 4857,
      "ĠhÃ¡rrÃ¡i": 4858,
      "Ġjuol": 4859,
      "ĠvÃ¡cc": 4860,
      "Ġoidno": 4861,
      "bÃ¡lvalus": 4862,
      "Ã¡sta": 4863,
      "ĠsÃ¡htii": 4864,
      "Ġteavstt": 4865,
      "ĠvÃ¡lgab": 4866,
      "bargu": 4867,
      "ĠjÃ¡hkkit": 4868,
      "jea": 4869,
      "Leat": 4870,
      "ĠPorsÃ¡Åĭggu": 4871,
      "ĠArne": 4872,
      "ttiin": 4873,
      "ĠKr": 4874,
      "ca": 4875,
      "Ġoadje": 4876,
      "ĠTri": 4877,
      "Ġjusta": 4878,
      "ormÃ¡n": 4879,
      "ÃģRÃģÅł": 4880,
      "ĠÄĮÃ¡ll": 4881,
      "ĠMort": 4882,
      "Ġlohku": 4883,
      "ĠvÃ¡zzit": 4884,
      "ĠKultur": 4885,
      "aleaddji": 4886,
      "01": 4887,
      "Ġdr": 4888,
      "oames": 4889,
      "Ġorron": 4890,
      "iba": 4891,
      "ĠballÃ¡": 4892,
      "ĠSin": 4893,
      "ĠmeahcÃ¡st": 4894,
      "ggam": 4895,
      "oÅ¡ieht": 4896,
      "olitiijat": 4897,
      "Ġbuoremusat": 4898,
      "fjell": 4899,
      "Ġkap": 4900,
      "Ġneahttasii": 4901,
      "ĠJuohke": 4902,
      "Ġorro": 4903,
      "ejoÄĳih": 4904,
      "26": 4905,
      "jÃ¡t": 4906,
      "ĠAstrid": 4907,
      "Ġstuoris": 4908,
      "ĠdehÃ¡leamos": 4909,
      "Ġbiill": 4910,
      "Ġuv": 4911,
      "ĠboaÄĳ": 4912,
      "Ġkant": 4913,
      "Ġmeahcis": 4914,
      "kes": 4915,
      "Ġmuitalan": 4916,
      "Ã¡ri": 4917,
      "Ġolahit": 4918,
      "DieÄĳ": 4919,
      "olaga": 4920,
      "ahuvvon": 4921,
      "ĠMuÄĳui": 4922,
      "Ġheaittih": 4923,
      "ĠgÃ¡lvv": 4924,
      "enn": 4925,
      "Ġgulai": 4926,
      "Ġstivrra": 4927,
      "abehtet": 4928,
      "Ġbellodat": 4929,
      "eard": 4930,
      "ĠÄįu": 4931,
      "Ã¡gat": 4932,
      "Ġbeana": 4933,
      "ĠdilÃ¡laÅ¡": 4934,
      "Ġdeaivvad": 4935,
      "mmun": 4936,
      "ĠdohkÃ¡laÅ¡": 4937,
      "oarjja": 4938,
      "Ġnuppe": 4939,
      "ealk": 4940,
      "ĠskeaÅĭ": 4941,
      "pros": 4942,
      "Ġlogald": 4943,
      "ĠrÃ¡ÄĳÄĳehusa": 4944,
      "asiin": 4945,
      "Ġleimmet": 4946,
      "ĠPersen": 4947,
      "Ġlogut": 4948,
      "ĠproÅ¡eakta": 4949,
      "Ġsir": 4950,
      "ĠNuorta": 4951,
      "ĠBargiidbellodat": 4952,
      "Boazodoall": 4953,
      "MaiddÃ¡i": 4954,
      "ĠmÃ¡nÃ¡in": 4955,
      "ĠdiÅĭ": 4956,
      "ĠÃ¡iggun": 4957,
      "jok": 4958,
      "35": 4959,
      "ĠguoÄĳ": 4960,
      "Ã¥s": 4961,
      "Ġmihtt": 4962,
      "ĠgolggotmÃ¡nu": 4963,
      "Ġdihtet": 4964,
      "ĠgÃ¡vcci": 4965,
      "Ġsihkkarit": 4966,
      "koar": 4967,
      "ohit": 4968,
      "Ġoainne": 4969,
      "ĠBon": 4970,
      "Ġalit": 4971,
      "ĠMaÅĭ": 4972,
      "ĠdovdÃ¡": 4973,
      "Ġdaga": 4974,
      "Ġkor": 4975,
      "Ã¡B": 4976,
      "ĠsÃ¡mes": 4977,
      "iljus": 4978,
      "NA": 4979,
      "ĠÃ¡vki": 4980,
      "odd": 4981,
      "ohallan": 4982,
      "vdna": 4983,
      "Ġgeavaha": 4984,
      "Ġgullo": 4985,
      "Ġhupmat": 4986,
      "agoahtÃ¡n": 4987,
      "Ġsoahte": 4988,
      "ĠrÃ¡djai": 4989,
      "ĠÃ¡nss": 4990,
      "Ġosk": 4991,
      "ĠvÃ¡rre": 4992,
      "ĠDÃ¡kkÃ¡r": 4993,
      "jit": 4994,
      "ĠlÃ¡i": 4995,
      "ĠvuoÄĳÄĳos": 4996,
      "ĠhÃ¡liidat": 4997,
      "ĠÃģnte": 4998,
      "Ġjearah": 4999,
      "Ġoall": 5000,
      "allamiin": 5001,
      "jar": 5002,
      "Ã¡gas": 5003,
      "Ġnjuolggadusat": 5004,
      "MaÅĭÅĭ": 5005,
      "buv": 5006,
      "eanttaid": 5007,
      "!!": 5008,
      "ld": 5009,
      "Ġvuhtt": 5010,
      "Ã¤rvi": 5011,
      "organisaÅ¡": 5012,
      "Ġsohk": 5013,
      "Ġsoab": 5014,
      "Ġfall": 5015,
      "ĠOlav": 5016,
      "Ã¥rd": 5017,
      "Ovdd": 5018,
      "ĠbÃ¡gg": 5019,
      "ĠgiÄĳa": 5020,
      "Buot": 5021,
      "Ġberrejit": 5022,
      "ĠdÃ¡iddÃ¡r": 5023,
      "ttaÅ¾": 5024,
      "ĠRiÄĳÄĳu": 5025,
      "Ġealgabivd": 5026,
      "aÅ¡uvnna": 5027,
      "Ã¡llu": 5028,
      "ĠRiikkas": 5029,
      "ĠvÃ¡ldde": 5030,
      "itÃ¡n": 5031,
      "Ġgoittot": 5032,
      "ĠTer": 5033,
      "jagi": 5034,
      "Ã¡liid": 5035,
      "egas": 5036,
      "ĠvuordÃ¡n": 5037,
      "anis": 5038,
      "Ġgilvvu": 5039,
      "Lihkk": 5040,
      "Ã¡ilmmi": 5041,
      "Ġsem": 5042,
      "ĠGuovddÃ¡Å¡": 5043,
      "eddjiide": 5044,
      "ĠnammasaÅ¡": 5045,
      "ĠOvdal": 5046,
      "ĠeisevÃ¡lddiid": 5047,
      "koh": 5048,
      "mme": 5049,
      "ĠdassÃ¡Å¾ii": 5050,
      "del": 5051,
      "Ġtem": 5052,
      "MÃ¡r": 5053,
      "adettiin": 5054,
      "ĠEn": 5055,
      "vea": 5056,
      "Ġovttaskas": 5057,
      "Ġtil": 5058,
      "elaÅ¡": 5059,
      "ĠluÄĳ": 5060,
      "ĠsÃ¡hk": 5061,
      "Ġguovttegiel": 5062,
      "Ġiskat": 5063,
      "gÅĭ": 5064,
      "ial": 5065,
      "Ġbohtosiid": 5066,
      "Ġluos": 5067,
      "Ġlihkohis": 5068,
      "git": 5069,
      "arii": 5070,
      "htti": 5071,
      "ĠAikio": 5072,
      "illa": 5073,
      "Ã¡iddus": 5074,
      "ihpp": 5075,
      "Ġovdag": 5076,
      "ÄįÃ¡z": 5077,
      "ddje": 5078,
      "ĠKÃ¡rÃ¡Å¡johka": 5079,
      "Ġbeliid": 5080,
      "Ġstipean": 5081,
      "ĠvÃ¡ttisvuoÄĳat": 5082,
      "ĠDÃ¡ppe": 5083,
      "jÃ¸": 5084,
      "odÃ¡ht": 5085,
      "eahppi": 5086,
      "Ġregistr": 5087,
      "lund": 5088,
      "iijas": 5089,
      "ĠfÃ¡laldat": 5090,
      "ĠTriumf": 5091,
      "anh": 5092,
      "vuogi": 5093,
      "konsear": 5094,
      "ĠvÃ¡ill": 5095,
      "Ġoidnet": 5096,
      "net": 5097,
      "Ġ>": 5098,
      "Ġguodd": 5099,
      "Ġbohccobier": 5100,
      "ddain": 5101,
      "oahppu": 5102,
      "veig": 5103,
      "ĠSearvi": 5104,
      "alaÅ¾Å¾an": 5105,
      "iidna": 5106,
      "httÃ¡n": 5107,
      "Ġdoakt": 5108,
      "luo": 5109,
      "odii": 5110,
      "Ġnieiddat": 5111,
      "PP": 5112,
      "Ġu": 5113,
      "ĠAnna": 5114,
      "ĠEU": 5115,
      "Ġovttage": 5116,
      "Ġgalle": 5117,
      "Ġgillii": 5118,
      "Ġmols": 5119,
      "RA": 5120,
      "ĠStÃ¡hta": 5121,
      "ĠÄįoahkkima": 5122,
      "Ġollen": 5123,
      "ĠkonferÃ¡n": 5124,
      "Ġbirget": 5125,
      "ĠÃ¡lbmotbeaivvi": 5126,
      "45": 5127,
      "eabb": 5128,
      "uva": 5129,
      "ĠgullevaÅ¡": 5130,
      "ĠgÃ¡vpot": 5131,
      "ĠMartin": 5132,
      "searvi": 5133,
      "ĠSÃ¦": 5134,
      "âĢº": 5135,
      "ĠÃ¡irras": 5136,
      "ĠvejolaÅ¡vuoÄĳat": 5137,
      "Ġroas": 5138,
      "Gask": 5139,
      "eaddjis": 5140,
      "Ġgovat": 5141,
      "idedje": 5142,
      "ĠviÅ¡Å¡": 5143,
      "Ġoar": 5144,
      "Ġbargguin": 5145,
      "Ġelliid": 5146,
      "ĠriÅĭg": 5147,
      "istu": 5148,
      "rrat": 5149,
      "Ġheahte": 5150,
      "ĠcuoÅĭomÃ¡nu": 5151,
      "Ġluosa": 5152,
      "olbmuide": 5153,
      "ĠoahpÃ¡sm": 5154,
      "Ġlull": 5155,
      "ĠdÃ¡hpÃ¡huvai": 5156,
      "adji": 5157,
      "Ġpresid": 5158,
      "bbaid": 5159,
      "KÃģRÃģÅł": 5160,
      "Ġadv": 5161,
      "Ġgilis": 5162,
      "ĠjÃ¡vrr": 5163,
      "ĠjÃ¡pmÃ¡n": 5164,
      "Ġlagas": 5165,
      "Ġpolitihkkar": 5166,
      "ĠieÅ¡guÄĳetge": 5167,
      "Ġdahkkon": 5168,
      "ĠSÃ¡pmÃ¡i": 5169,
      "ĠdoallÃ¡": 5170,
      "Ġkilom": 5171,
      "Ġsur": 5172,
      "Ġsmiehtt": 5173,
      "Ġboazodoallit": 5174,
      "Ġev": 5175,
      "ĠlÃ¡vvardaga": 5176,
      "ĠearenoamÃ¡Å¾it": 5177,
      "etta": 5178,
      "ÄįÄįat": 5179,
      "ĠÄįÃ¡zi": 5180,
      "ĠÅ¡Ã¡lloÅ¡": 5181,
      "ĠmÃ¡hte": 5182,
      "Ġnjie": 5183,
      "Ġvuoiti": 5184,
      "Ã¡rjeh": 5185,
      "umit": 5186,
      "ĠFert": 5187,
      "PMI": 5188,
      "Ġdoaimmaide": 5189,
      "ĠÄįohkket": 5190,
      "Ġbuohcciv": 5191,
      "Ġmeannudit": 5192,
      "ddut": 5193,
      "Ġstoahk": 5194,
      "Nord": 5195,
      "ĠbÃ¡rtni": 5196,
      "ĠSeammÃ¡s": 5197,
      "odepartem": 5198,
      "ejuvvui": 5199,
      "attetge": 5200,
      "ĠÃ¡vkkÃ¡st": 5201,
      "Ġnamaid": 5202,
      "ĠatnÃ¡": 5203,
      "Äįoa": 5204,
      "Ġher": 5205,
      "âĢĿ.": 5206,
      "ĠvÃ¡llje": 5207,
      "ulaÅ¡": 5208,
      "ĠOahpp": 5209,
      "ĠHÃ¡mmÃ¡r": 5210,
      "ahaga": 5211,
      "Ġunnidit": 5212,
      "Ġvahkkus": 5213,
      "ĠvuoigatvuoÄĳat": 5214,
      "ĠhÃ¡rjÃ¡nan": 5215,
      "Ġhutk": 5216,
      "eanttas": 5217,
      "Ġfitnodaga": 5218,
      "Ġgirjjis": 5219,
      "Ġdohkkehan": 5220,
      "ejumi": 5221,
      "omear": 5222,
      "iÅ¡uvdna": 5223,
      "ĠOlmmÃ¡i": 5224,
      "ĠGoa": 5225,
      "ejin": 5226,
      "ĠSam": 5227,
      "isttis": 5228,
      "Ġsierr": 5229,
      "Ġdidjiide": 5230,
      "eaddjÃ¡i": 5231,
      "ĠboarrÃ¡s": 5232,
      "ĠborgemÃ¡nu": 5233,
      "27": 5234,
      "eahcc": 5235,
      "hkkÃ¡": 5236,
      "ĠvuoitÃ¡n": 5237,
      "ĠeaiggÃ¡d": 5238,
      "ĠLyn": 5239,
      "Ġrievdan": 5240,
      "Ġorganis": 5241,
      "Ġsotnabeaivvi": 5242,
      "ĠInge": 5243,
      "Ġallaskuvlla": 5244,
      "Ġmuddui": 5245,
      "eaddjiid": 5246,
      "Ã¡rvv": 5247,
      "kad": 5248,
      "Ġnagot": 5249,
      "ĠMÃ¡rjÃ¡": 5250,
      "Ã¡jÃ¡hus": 5251,
      "Ġdoarju": 5252,
      "ĠSar": 5253,
      "ĠJu": 5254,
      "ĠÃ¡ssan": 5255,
      "idne": 5256,
      "vuogÃ¡d": 5257,
      "Ġgilvalit": 5258,
      "ĠÄįadn": 5259,
      "ĠduojÃ¡r": 5260,
      "ilii": 5261,
      "ĠduhtavaÄįÄįat": 5262,
      "Ġseaill": 5263,
      "ebo": 5264,
      "Jo": 5265,
      "ilu": 5266,
      "ĠIt": 5267,
      "ĠKn": 5268,
      "stÃ¸": 5269,
      "ĠÃ¡lbmogis": 5270,
      "VÃ¡rjj": 5271,
      "Ã¡Åĭg": 5272,
      "Ãħ": 5273,
      "ĠMarg": 5274,
      "Ġmearriduvvon": 5275,
      "Ġeanemusat": 5276,
      "ĠUnivers": 5277,
      "Ã¡hkai": 5278,
      "ĠLog": 5279,
      "Ġvier": 5280,
      "Ġcegget": 5281,
      "Ġoaidnu": 5282,
      "Ġlasihit": 5283,
      "ĠSof": 5284,
      "dahk": 5285,
      "ĠgÃ¡vppaÅ¡": 5286,
      "06": 5287,
      "eaddi": 5288,
      "Ġgokko": 5289,
      "Ġruvdn": 5290,
      "Ġbuv": 5291,
      "ĠguhkÃ¡s": 5292,
      "Ġskuvllain": 5293,
      "Ġdoarr": 5294,
      "Ġ500": 5295,
      "Ġspeall": 5296,
      "pi": 5297,
      "erihk": 5298,
      "ĠDÃ¡idd": 5299,
      "Ġsull": 5300,
      "Suoma": 5301,
      "ĠrÃ¡ÅĭggÃ¡Å¡t": 5302,
      "allo": 5303,
      "agilvv": 5304,
      "ĠsÃ¡pmelaÄįÄįaide": 5305,
      "ĠvuosttaÅ¾": 5306,
      "NRK": 5307,
      "juo": 5308,
      "vit": 5309,
      "ĠSihke": 5310,
      "Ġdoaimmahit": 5311,
      "ĠproÅ¡eakt": 5312,
      "ĠlÃ¡vlun": 5313,
      "Ġbealli": 5314,
      "ĠdÃ¡idÃ¡": 5315,
      "skar": 5316,
      "oahpahus": 5317,
      "Ġnana": 5318,
      "ĠlÃ¡vlaga": 5319,
      "Ġeahkeda": 5320,
      "Ġsoj": 5321,
      "ĠKemi": 5322,
      "giela": 5323,
      "Ġotne": 5324,
      "pl": 5325,
      "dduid": 5326,
      "oavttir": 5327,
      "Ġoktavuohta": 5328,
      "ktiibuot": 5329,
      "ĠEarret": 5330,
      "Ġnjulg": 5331,
      "iehk": 5332,
      "Ġver": 5333,
      "ĠJur": 5334,
      "ovat": 5335,
      "ĠjoÄĳiheaddjin": 5336,
      "Ġrum": 5337,
      "Gal": 5338,
      "joavkku": 5339,
      "Ġgur": 5340,
      "ĠLind": 5341,
      "Ġolgun": 5342,
      "\",": 5343,
      "ĠgeahÄįadit": 5344,
      "ĠovdaolmmoÅ¡": 5345,
      "ilo": 5346,
      "Ġloktet": 5347,
      "Ġno": 5348,
      "ĠruoÅ¡Å¡": 5349,
      "Sea": 5350,
      "ĠmÃ¡tt": 5351,
      "ĠhÃ¡rjehallat": 5352,
      "Äĳistaga": 5353,
      "ĠÄįo": 5354,
      "ĠOvddÃ¡dus": 5355,
      "Ġlagabui": 5356,
      "emuÅ¡": 5357,
      "Ġluossa": 5358,
      "28": 5359,
      "ĠmÃ¡hcc": 5360,
      "onj": 5361,
      "erÃ¡Äĳi": 5362,
      "ĠDuÅ¡Å¡e": 5363,
      "ĠeÅĭg": 5364,
      "KÃģRÃģÅłJOHKA": 5365,
      "ĠâĢĻ": 5366,
      "ahusaid": 5367,
      "vejolaÅ¡": 5368,
      "ĠvuoÄĳÄĳo": 5369,
      "ĠekonomalaÅ¡": 5370,
      "ĠvehÃ¡": 5371,
      "ĠManne": 5372,
      "ĠVuol": 5373,
      "ĠdeaÅ§": 5374,
      "ĠdÃ¡rbbu": 5375,
      "ents": 5376,
      "Ġveahkav": 5377,
      "ĠÃ¡ddet": 5378,
      "Ġbuolvv": 5379,
      "Ã¡Å¾at": 5380,
      "ĠjahkÃ¡saÄįÄįat": 5381,
      "Ġmearrida": 5382,
      "ĠgohÄįoduvvon": 5383,
      "ĠSven": 5384,
      "lin": 5385,
      "Ã¡rtn": 5386,
      "ĠMÃ¡nÃ¡id": 5387,
      "Ġgusket": 5388,
      "Ã¡sku": 5389,
      "Ġbotta": 5390,
      "ĠRie": 5391,
      "Ġmuitit": 5392,
      "oahpu": 5393,
      "ehaÅ¡": 5394,
      "uÅ¡Å¡an": 5395,
      "Ġ300": 5396,
      "BM": 5397,
      "Ġgoz": 5398,
      "eamet": 5399,
      "ĠlÃ¡vejit": 5400,
      "Ġguldalit": 5401,
      "Ã¡lalaÅ¡": 5402,
      "ĠhistorjjÃ¡": 5403,
      "ĠriegÃ¡dan": 5404,
      "aÅ¡unÃ¡la": 5405,
      "searvvi": 5406,
      "ebivd": 5407,
      "ĠgÃ¡rvvis": 5408,
      "Ġjoavd": 5409,
      "ieidd": 5410,
      "uhuvvo": 5411,
      "Ġdovdet": 5412,
      "Ġoahpaheaddjit": 5413,
      "allit": 5414,
      "Ġjuhkk": 5415,
      "Ġbarggut": 5416,
      "Ġmod": 5417,
      "Ġgaskab": 5418,
      "Ġipmir": 5419,
      "ĠMuhtin": 5420,
      "Ġreivve": 5421,
      "SS": 5422,
      "Ġnorg": 5423,
      "Ġevttohan": 5424,
      "ino": 5425,
      "httis": 5426,
      "Ġjiena": 5427,
      "ddiin": 5428,
      "Ġgoik": 5429,
      "ĠsÃ¡miide": 5430,
      "ĠDaid": 5431,
      "ĠbÃ¡lkkaÅ¡": 5432,
      "ĠbidjÃ¡": 5433,
      "Ġjulev": 5434,
      "eme": 5435,
      "Ġaddet": 5436,
      "ĠÄįuoÅ¾Å¾u": 5437,
      "ĠvÃ¡stÃ¡dusa": 5438,
      "ĠRÃ¡": 5439,
      "ĠfÃ¡rrui": 5440,
      "Ã¡ns": 5441,
      "ĠmÃ¡Åĭggaid": 5442,
      "Ġgen": 5443,
      "uÅ¡t": 5444,
      "AV": 5445,
      "ĠgÃ¡f": 5446,
      "umm": 5447,
      "aimet": 5448,
      "ĠDiv": 5449,
      "ac": 5450,
      "ĠKristine": 5451,
      "ĠbÃ¡ikÃ¡i": 5452,
      "Ġsiskkobealde": 5453,
      "Ġuniversitehta": 5454,
      "ĠmÃ¡htu": 5455,
      "Ġprins": 5456,
      "avear": 5457,
      "kses": 5458,
      "Ġ2011": 5459,
      "onen": 5460,
      "ĠÃ¡lbmotm": 5461,
      "ĠEarÃ¡": 5462,
      "ĠÄĮÃ¡hces": 5463,
      "ÃģH": 5464,
      "IV": 5465,
      "elii": 5466,
      "Ġisk": 5467,
      "Ġsuorgg": 5468,
      "Ġgah": 5469,
      "Ġoahppu": 5470,
      "po": 5471,
      "ovss": 5472,
      "ĠinformÃ¡n": 5473,
      "Ġre": 5474,
      "vda": 5475,
      "bman": 5476,
      "ĠÃ¡dde": 5477,
      "ĠjoÄĳihit": 5478,
      "ĠKan": 5479,
      "Ġkonseartta": 5480,
      "gÃ¡htten": 5481,
      "oavk": 5482,
      "uhtta": 5483,
      "Hea": 5484,
      "ock": 5485,
      "ihtÃ¡": 5486,
      "ĠDav": 5487,
      "ihkain": 5488,
      "ĠlÃ¡ig": 5489,
      "Ġealu": 5490,
      "ĠviÄĳa": 5491,
      "Ġgilvvus": 5492,
      "Ġgoassige": 5493,
      "ĠÃ¡lggahan": 5494,
      "Ġbirrasis": 5495,
      "ĠrÃ¡vis": 5496,
      "ĠKaren": 5497,
      "nuor": 5498,
      "Ġjot": 5499,
      "ilan": 5500,
      "ĠNubbi": 5501,
      "gon": 5502,
      "Ġpo": 5503,
      "VuosttaÅ¡": 5504,
      "ĠÄįuoÄįÄįuha": 5505,
      "ĠÄįoagg": 5506,
      "Ġav": 5507,
      "GA": 5508,
      "Ġsoames": 5509,
      "ttu": 5510,
      "ihkkal": 5511,
      "jjÃ¡": 5512,
      "Ġeatnig": 5513,
      "agiidda": 5514,
      "oÅ¡ekt": 5515,
      "uvnnain": 5516,
      "ĠGirkon": 5517,
      "Ġbirrasii": 5518,
      "ĠÄįakÄįat": 5519,
      "ĠOa": 5520,
      "Ġskut": 5521,
      "ĠsomÃ¡s": 5522,
      "ĠÄįÃ¡jÃ¡lmas": 5523,
      "ĠvuordÃ¡muÅ¡": 5524,
      "ĠhÃ¡vd": 5525,
      "Ġdoibm": 5526,
      "Ġmih": 5527,
      "earvvis": 5528,
      "Ġminer": 5529,
      "ĠboahtteÃ¡iggi": 5530,
      "mÃ¡t": 5531,
      "ĠmÃ¡ht": 5532,
      "ĠoahppoplÃ¡n": 5533,
      "ĠdÃ¡rbbaÅ¡laÅ¡": 5534,
      "eguovd": 5535,
      "ssÃ¡rgga": 5536,
      "Ġjienastit": 5537,
      "Ġnjulgestaga": 5538,
      "ning": 5539,
      "assin": 5540,
      "ahttÃ¡n": 5541,
      "ĠeaktodÃ¡ht": 5542,
      "Å½": 5543,
      "ĠLe": 5544,
      "mmoÅ¾": 5545,
      "ĠjuovlamÃ¡nu": 5546,
      "ksu": 5547,
      "Ã¡jeh": 5548,
      "ĠmÃ¡httÃ¡": 5549,
      "eaiggÃ¡t": 5550,
      "Ġbiktasiid": 5551,
      "pe": 5552,
      "ĠRog": 5553,
      "ĠguoÄĳÄĳit": 5554,
      "ĠnjunuÅ¡": 5555,
      "skareng": 5556,
      "Ġmater": 5557,
      "kuvlii": 5558,
      "aÄįÄįas": 5559,
      "ĠrÃ¡Äĳi": 5560,
      "abeale": 5561,
      "skat": 5562,
      "earrÃ¡igeahÄįÄį": 5563,
      "ĠgoddÃ¡n": 5564,
      "ĠhÃ¡llat": 5565,
      "ĠÃ¡hkku": 5566,
      "bjÃ¸rn": 5567,
      "Ġheivehuvvon": 5568,
      "Otn": 5569,
      "ĠipmÃ¡rd": 5570,
      "ĠvuolgÃ¡": 5571,
      "ĠbahÃ¡but": 5572,
      "Ã¡vnn": 5573,
      "ĠÄįuohcÃ¡": 5574,
      "ĠboahttevaÅ¡": 5575,
      "Ã¡neapmi": 5576,
      "aguovddÃ¡Å¾a": 5577,
      "Oaneh": 5578,
      "eaksta": 5579,
      "ssain": 5580,
      "KK": 5581,
      "govva": 5582,
      "Ġbu": 5583,
      "Ġvulos": 5584,
      "oaivv": 5585,
      "Ġ2003": 5586,
      "vvan": 5587,
      "Ġjov": 5588,
      "Ġnjea": 5589,
      "rakt": 5590,
      "ÃģI": 5591,
      "istis": 5592,
      "uovlluid": 5593,
      "Ġdagahan": 5594,
      "Ġdavvi": 5595,
      "Ġbellodaga": 5596,
      "ctic": 5597,
      "Ġduoddar": 5598,
      "Ġthe": 5599,
      "ĠbeassÃ¡Å¾iid": 5600,
      "Ġdehe": 5601,
      "ĠkultuvrralaÅ¡": 5602,
      "Ġjohtolat": 5603,
      "ES": 5604,
      "ĠbearrÃ¡igeahÄįÄį": 5605,
      "ĠluohkÃ¡": 5606,
      "Ġhom": 5607,
      "ĠnÃ¡vddaÅ¡": 5608,
      "Äĳu": 5609,
      "ĠLÃ¡g": 5610,
      "sÃ¡meg": 5611,
      "Ġleahk": 5612,
      "eastta": 5613,
      "ĠÃ¡mm": 5614,
      "Ã¡rii": 5615,
      "Ġorg": 5616,
      "Ġsiid": 5617,
      "usge": 5618,
      "vuohtan": 5619,
      "ĠdavvisÃ¡meg": 5620,
      "SÃģME": 5621,
      "eabbo": 5622,
      "agne": 5623,
      "ĠÃ¡rgab": 5624,
      "Ġija": 5625,
      "08": 5626,
      "aguovddÃ¡Å¡": 5627,
      "Ġnjealji": 5628,
      "ĠskÃ¡bmamÃ¡nu": 5629,
      "Ġmuitalus": 5630,
      "Ã¡igÃ¡saÅ¡": 5631,
      "Ġeast": 5632,
      "Ã¡hppes": 5633,
      "Ġdorvv": 5634,
      "ĠdÃ¡rkilit": 5635,
      "Ġsisab": 5636,
      "ĠRagnhild": 5637,
      "ĠSÃ¡httÃ¡": 5638,
      "Gii": 5639,
      "Ġ2018": 5640,
      "ĠsÃ¡vzz": 5641,
      "ĠoainnÃ¡t": 5642,
      "ĠdÃ¡rogiela": 5643,
      "Ġbuss": 5644,
      "ĠrÃ¡id": 5645,
      "ĠleansmÃ¡nn": 5646,
      "inen": 5647,
      "uso": 5648,
      "ĠdÃ¡vvir": 5649,
      "ĠdÃ¡lu": 5650,
      "evuo": 5651,
      "uoÄĳaid": 5652,
      "ĠvÃ¡ikkuhusat": 5653,
      "Ġsirdit": 5654,
      "Ġorohat": 5655,
      "ĠNystÃ¸": 5656,
      "fievrr": 5657,
      "ĠNorsk": 5658,
      "Ġovddos": 5659,
      "Ã¡lii": 5660,
      "mmÃ¡": 5661,
      "ĠbadjelaÅ¡": 5662,
      "vig": 5663,
      "ohallat": 5664,
      "Ġdoaibmat": 5665,
      "Ġalimus": 5666,
      "Ġbeaivvis": 5667,
      "ĠhÃ¡rjehallan": 5668,
      "llet": 5669,
      "ĠvuostÃ¡i": 5670,
      "ĠMorten": 5671,
      "Per": 5672,
      "ĠÃģigg": 5673,
      "ĠJohnskareng": 5674,
      "ĠÄįikÄį": 5675,
      "meahtt": 5676,
      "Ġvuoigatvuohta": 5677,
      "ĠmeroÅ¡t": 5678,
      "Ġboazologu": 5679,
      "bag": 5680,
      "viesus": 5681,
      "ĠdieÄĳÃ¡n": 5682,
      "ĠvÃ¡ikkuha": 5683,
      "Ġrivttes": 5684,
      "ĠÂłĠ": 5685,
      "ĠMie": 5686,
      "ĠvuogÃ¡d": 5687,
      "ĠgÃ¡vdnon": 5688,
      "Ġjoatkkaskuvlla": 5689,
      "ĠÄįiekÅĭ": 5690,
      "Lean": 5691,
      "Ġolgo": 5692,
      "joht": 5693,
      "Ġheahp": 5694,
      "ĠVai": 5695,
      "Ġveard": 5696,
      "ĠluohkÃ¡s": 5697,
      "Ġsoitet": 5698,
      "rÃ¸m": 5699,
      "Ġsivva": 5700,
      "yg": 5701,
      "Ġlehpet": 5702,
      "ĠvÃ¡ikkuhan": 5703,
      "ihkku": 5704,
      "Ġ35": 5705,
      "ĠsÃ¡megielas": 5706,
      "olf": 5707,
      "Ġseag": 5708,
      "off": 5709,
      "ĠÃ¡rvvus": 5710,
      "Ġkantuv": 5711,
      "allas": 5712,
      "ĠDavvir": 5713,
      "ikt": 5714,
      "Ġrus": 5715,
      "ĠKat": 5716,
      "ĠdehÃ¡laÅ¾Å¾an": 5717,
      "Ġgearggus": 5718,
      "Ġovttasbargat": 5719,
      "Ġgulahallat": 5720,
      "ĠvÃ¡sih": 5721,
      "Bir": 5722,
      "Kar": 5723,
      "Ġjask": 5724,
      "ihkalaÄįÄįat": 5725,
      "Ġsihkkarastit": 5726,
      "Ġjea": 5727,
      "ĠBea": 5728,
      "ohku": 5729,
      "Davvi": 5730,
      "ĠoaÄĳÄĳ": 5731,
      "Ġgildii": 5732,
      "Lei": 5733,
      "Ã¡lmm": 5734,
      "Ġoaggun": 5735,
      "ĠErland": 5736,
      "jan": 5737,
      "ĠÃ¡nssÃ¡Å¡": 5738,
      "ĠLEA": 5739,
      "ĠUlbmil": 5740,
      "Ġtr": 5741,
      "ĠÄįeahpes": 5742,
      "ĠTerje": 5743,
      "ĠFran": 5744,
      "ĠdÃ¡Å¾a": 5745,
      "ĠÄįÃ¡bb": 5746,
      "Ġkont": 5747,
      "onÃ¡n": 5748,
      "ĠDeatn": 5749,
      "jiid": 5750,
      "Ġ196": 5751,
      "ejuvvojit": 5752,
      "ĠhÃ¡lida": 5753,
      "Ġbiepmu": 5754,
      "Ġlihku": 5755,
      "ĠRÃ¡ÄĳÄĳehus": 5756,
      "astin": 5757,
      "ĠbÃ¡hÄįit": 5758,
      "ĠEli": 5759,
      "Ġbivnn": 5760,
      "Ġdulk": 5761,
      "rievtt": 5762,
      "Ġlagamus": 5763,
      "Ġdokument": 5764,
      "ĠluohttÃ¡muÅ¡": 5765,
      "ahuvvo": 5766,
      "urs": 5767,
      "ĠrÃ¡ÄĳÄĳi": 5768,
      "Ġilluda": 5769,
      "ĠmassÃ¡n": 5770,
      "jot": 5771,
      "Ã¡nne": 5772,
      "Ġbuohtast": 5773,
      "ĠÃ¡but": 5774,
      "ĠspÃ¡ppa": 5775,
      "Ġbierg": 5776,
      "Ġmielddisbukt": 5777,
      "allamin": 5778,
      "kc": 5779,
      "komm": 5780,
      "ovtt": 5781,
      "ĠovdalaÅ¡": 5782,
      "Ġmohtor": 5783,
      "Ġjuolludan": 5784,
      "Ã¡Äĳ": 5785,
      "Ġeana": 5786,
      "Ġboasttu": 5787,
      "ĠÃ¡kkast": 5788,
      "uokt": 5789,
      "ddin": 5790,
      "edii": 5791,
      "Ġjietna": 5792,
      "Ġfylkka": 5793,
      "Ġluonddus": 5794,
      "Ġleatge": 5795,
      "Ã¡Åĭga": 5796,
      "eivviin": 5797,
      "oÅ¡ektii": 5798,
      "Okta": 5799,
      "Ġluohti": 5800,
      "Ġustib": 5801,
      "ĠdÃ¡sse": 5802,
      "Ġdoaibman": 5803,
      "beaivi": 5804,
      "Ġpl": 5805,
      "Ġdihtor": 5806,
      "Ã¡htalaÅ¡": 5807,
      "Oahpaheaddji": 5808,
      "ĠÅ¡iehtadus": 5809,
      "geg": 5810,
      "ĠSearvvi": 5811,
      "Anne": 5812,
      "Ġstuorr": 5813,
      "Ã¡htera": 5814,
      "ĠÃ¡Å¡Å¡Ã¡i": 5815,
      "ebÃ¡rgga": 5816,
      "ĠlÃ¡vlu": 5817,
      "ĠvuoigatvuoÄĳa": 5818,
      "ohÃ¡lddahus": 5819,
      "giel": 5820,
      "Ġlanj": 5821,
      "eallas": 5822,
      "Ġahk": 5823,
      "Ġjuohkit": 5824,
      "ĠbuktÃ¡n": 5825,
      "Ġgilvu": 5826,
      "Ġguohtun": 5827,
      "SK": 5828,
      "aja": 5829,
      "ĠlÃ¡gan": 5830,
      "Ã¥d": 5831,
      "ĠNilut": 5832,
      "ĠÄįuovvu": 5833,
      "UN": 5834,
      "ĠdÃ¡hpÃ¡husa": 5835,
      "Ġviesus": 5836,
      "Ġdiht": 5837,
      "ĠmÃ¡nÃ¡ids": 5838,
      "Ġliikon": 5839,
      "Ġhel": 5840,
      "Ġgeavahuvvo": 5841,
      "ĠjÃ¡vkan": 5842,
      "Ġguss": 5843,
      "Ġdoaimmas": 5844,
      "KT": 5845,
      "ĠÄįur": 5846,
      "Ġohppiide": 5847,
      "cr": 5848,
      "ĠOlgeÅ¡": 5849,
      "ahusat": 5850,
      "ĠBear": 5851,
      "ĠFjell": 5852,
      "Ġnamat": 5853,
      "ĠeaiggÃ¡t": 5854,
      "ĠrastÃ¡": 5855,
      "eapmin": 5856,
      "ĠbeallÃ¡i": 5857,
      "Ġnisu": 5858,
      "ovnnalaÅ¡": 5859,
      "erte": 5860,
      "Ġeaska": 5861,
      "ĠjiekÅĭ": 5862,
      "lo": 5863,
      "adios": 5864,
      "MaÅĭ": 5865,
      "fir": 5866,
      "ivra": 5867,
      "ĠdiÅĭg": 5868,
      "ppis": 5869,
      "ĠÄįiekÄįat": 5870,
      "Ġjurdagiid": 5871,
      "Ġvuot": 5872,
      "ĠGea": 5873,
      "ĠSÃ¡mir": 5874,
      "UT": 5875,
      "jja": 5876,
      "Ġjog": 5877,
      "Ġdoalv": 5878,
      "ĠmÃ¡httet": 5879,
      "var": 5880,
      "ĠmÃ¡r": 5881,
      "ĠvuÄĳ": 5882,
      "ĠmÃ¡hc": 5883,
      "Ġolbmos": 5884,
      "ĠIsraela": 5885,
      "ĠsÃ¡tnejoÄĳih": 5886,
      "Ġvurd": 5887,
      "Ġidentitehta": 5888,
      "OanehaÄįÄįat": 5889,
      "Ġmaiguin": 5890,
      "geahÄįÄį": 5891,
      "mmoÅ¾in": 5892,
      "Ġidj": 5893,
      "ĠJul": 5894,
      "ĠguovÅ¾Å¾": 5895,
      "ĠGeir": 5896,
      "Ġnjiedj": 5897,
      "ĠBuohkat": 5898,
      "Ġguorahallan": 5899,
      "dÃ¡": 5900,
      "Ġsinguin": 5901,
      "09": 5902,
      "enoamÃ¡Å¾it": 5903,
      "Ġguovttos": 5904,
      "Mari": 5905,
      "Ġboan": 5906,
      "ministtar": 5907,
      "Ġguhkkin": 5908,
      "mar": 5909,
      "Ã¡nsa": 5910,
      "vear": 5911,
      "ons": 5912,
      "umiin": 5913,
      "Ġgust": 5914,
      "ĠSo": 5915,
      "ĠfÃ¡ga": 5916,
      "Ġguott": 5917,
      "ihkkÃ¡r": 5918,
      "ĠgÃ¡rren": 5919,
      "Ġnissonat": 5920,
      "Bargiidbell": 5921,
      "ĠSolbakken": 5922,
      "ĠMel": 5923,
      "ĠbeaivvÃ¡laÄįÄįat": 5924,
      "ĠberoÅ¡tit": 5925,
      "antihkalaÅ¡": 5926,
      "Ġjurdagat": 5927,
      "ĠbajÃ¡sÅ¡addan": 5928,
      "ĠvÃ¡stÃ¡dus": 5929,
      "eaivÃ¡i": 5930,
      "ĠeamiÃ¡lbmogiid": 5931,
      "alddis": 5932,
      "Ġeatnamii": 5933,
      "Ġsearvan": 5934,
      "Ġgeatnegas": 5935,
      "foan": 5936,
      "Ġdoaivv": 5937,
      "ĠgÃ¡vpoga": 5938,
      "alitehta": 5939,
      "Ġsn": 5940,
      "ĠÄįuor": 5941,
      "Ġmearrag": 5942,
      "IR": 5943,
      "joga": 5944,
      "rukt": 5945,
      "eant": 5946,
      "ĠStuorradi": 5947,
      "04": 5948,
      "ĠstÃ¡da": 5949,
      "ehÃ¡laÅ¡": 5950,
      "ign": 5951,
      "Ġkilo": 5952,
      "ilde": 5953,
      "Ġmaidige": 5954,
      "ĠÃ¡rtet": 5955,
      "ĠdiimmÃ¡": 5956,
      "ĠIssÃ¡t": 5957,
      "ĠdaÄĳistaga": 5958,
      "ĠHerman": 5959,
      "ĠSÃ¦ther": 5960,
      "02": 5961,
      "Ã¡ntuv": 5962,
      "Ġgielddain": 5963,
      "ĠChrist": 5964,
      "ĠAnÃ¡ris": 5965,
      "ĠoassÃ¡lastit": 5966,
      "iÅĭÅĭ": 5967,
      "ĠvÃ¡dd": 5968,
      "Ġridd": 5969,
      "ĠmÃ¡tki": 5970,
      "ĠÃ¡rvu": 5971,
      "ĠovdÃ¡neami": 5972,
      "ĠdillÃ¡i": 5973,
      "Ãģn": 5974,
      "ĠdÃ¡lki": 5975,
      "ĠbivdÃ¡n": 5976,
      "ĠollislaÅ¡": 5977,
      "uppel": 5978,
      "ibehtet": 5979,
      "Ġoadjebas": 5980,
      "Gol": 5981,
      "Oahpp": 5982,
      "Sara": 5983,
      "iibb": 5984,
      "bmo": 5985,
      "oasi": 5986,
      "Ġguovlu": 5987,
      "Ġmet": 5988,
      "ĠÃģill": 5989,
      "ĠgeahÄįÄįala": 5990,
      "Ġovddidan": 5991,
      "ĠvuolgÃ¡n": 5992,
      "Ġskuvllaid": 5993,
      "ggos": 5994,
      "Ġvuoddj": 5995,
      "Ġpar": 5996,
      "Ġnissoniid": 5997,
      "ĠhistorjjÃ¡laÅ¡": 5998,
      "uimmiid": 5999,
      "Ġleav": 6000,
      "Ġparlam": 6001,
      "Ġivnn": 6002,
      "Ġvugiin": 6003,
      "olÃ¡ga": 6004,
      "Ġrustteg": 6005,
      "oria": 6006,
      "Ġdievdu": 6007,
      "ĠÃ¡it": 6008,
      "Ġjahki": 6009,
      "ĠsÃ¡htÃ¡n": 6010,
      "Ġguovd": 6011,
      "ight": 6012,
      "ĠollÃ¡sit": 6013,
      "addi": 6014,
      "ĠfestivÃ¡las": 6015,
      "odagaide": 6016,
      "Ġbiht": 6017,
      "itehtas": 6018,
      "Ġsivvan": 6019,
      "ĠDahl": 6020,
      "Ġgoasse": 6021,
      "Ã¡igÃ¡i": 6022,
      "Ġdoaivu": 6023,
      "Å¾at": 6024,
      "olmmÃ¡i": 6025,
      "illj": 6026,
      "Ã¡vdegottis": 6027,
      "ĠgeahÄįen": 6028,
      "ĠmaÄĳe": 6029,
      "Ġevttoha": 6030,
      "ĠIsaksen": 6031,
      "ĠerenomÃ¡Å¡": 6032,
      "ohkalaÅ¡": 6033,
      "Ġskearru": 6034,
      "ĠovdÃ¡nahttit": 6035,
      "Ġgilvvuid": 6036,
      "Ġdohkkehuvvon": 6037,
      "radigg": 6038,
      "Gir": 6039,
      "kultuv": 6040,
      "htton": 6041,
      "astis": 6042,
      "eantan": 6043,
      "Ġ1997": 6044,
      "ĠjoÄĳÃ¡n": 6045,
      "ppo": 6046,
      "Ġbealit": 6047,
      "ĠMakkÃ¡r": 6048,
      "ĠSusanne": 6049,
      "Ġalkoh": 6050,
      "addÃ¡": 6051,
      "ĠhÃ¡stalusaid": 6052,
      "Ġmuittuha": 6053,
      "Ann": 6054,
      "Ġovddid": 6055,
      "ĠdÃ¡idde": 6056,
      "rasiid": 6057,
      "Ġgonagasa": 6058,
      "ĠPorsanger": 6059,
      "ĠLulli": 6060,
      "rÃ¡i": 6061,
      "ĠmÃ¡httit": 6062,
      "ĠgÃ¡vnnat": 6063,
      "ĠgahÄįÄį": 6064,
      "Ġeaskka": 6065,
      "Ġnjuo": 6066,
      "Ġguovlluide": 6067,
      "Ġmedia": 6068,
      "?âĢĿ": 6069,
      "ĠÃ¡lgo": 6070,
      "Ġmoala": 6071,
      "Ã¡vda": 6072,
      "ĠdÃ¡lkkÃ¡dat": 6073,
      "Giel": 6074,
      "Tr": 6075,
      "Ġsor": 6076,
      "rand": 6077,
      "ĠmÃ¡ll": 6078,
      "ĠbÃ¡iki": 6079,
      "iikkalaÅ¡": 6080,
      "abÃ¡lv": 6081,
      "oahpas": 6082,
      "ĠduoÄĳai": 6083,
      "za": 6084,
      "ppÃ¡": 6085,
      "egat": 6086,
      "ĠOla": 6087,
      "ĠPal": 6088,
      "Ġivdn": 6089,
      "Ġdutki": 6090,
      "ĠLuo": 6091,
      "ĠdutkamuÅ¡": 6092,
      "TV": 6093,
      "Ġdiehtt": 6094,
      "ĠÅ¡iehtadusa": 6095,
      "Ġdiehtojuohkin": 6096,
      "ilv": 6097,
      "ĠHe": 6098,
      "Ġw": 6099,
      "eris": 6100,
      "ĠKarl": 6101,
      "ĠÃ¡irasa": 6102,
      "ĠMuhtun": 6103,
      "kal": 6104,
      "ĠGiell": 6105,
      "vddi": 6106,
      "ĠmearrÃ¡dusaid": 6107,
      "Ġboaris": 6108,
      "ibut": 6109,
      "Ġsivas": 6110,
      "Ġgula": 6111,
      "Ġdovdda": 6112,
      "Ġob": 6113,
      "ĠÃ¡igeguovd": 6114,
      "Ġovdago": 6115,
      "Ġsudd": 6116,
      "IID": 6117,
      "ĠsosiÃ¡l": 6118,
      "ĠHarald": 6119,
      "ĠZ": 6120,
      "ĠrÃ¡nn": 6121,
      "Ġliige": 6122,
      "rethe": 6123,
      "GIEL": 6124,
      "Ġjoavkkut": 6125,
      "ĠRuoÅ¡Å¡as": 6126,
      "ĠGovva": 6127,
      "ĠgÃ¡ibÃ¡dusaid": 6128,
      "ĠhirpmÃ¡st": 6129,
      "usse": 6130,
      "ĠruÄĳat": 6131,
      "Ġalmmuhii": 6132,
      "Bear": 6133,
      "ilvu": 6134,
      "joÄĳih": 6135,
      "Ġbagad": 6136,
      "ĠKnut": 6137,
      "Ġval": 6138,
      "ĠdÃ¡idaga": 6139,
      "ostit": 6140,
      "ĠÄįoavddus": 6141,
      "ĠÄĮÃ¡hcesull": 6142,
      "ĠMÃ¡hte": 6143,
      "Ġjovkui": 6144,
      "DÃ¡s": 6145,
      "aÅ¡at": 6146,
      "Ġoaffar": 6147,
      "----": 6148,
      "Lihkkologut": 6149,
      "lÃ¡vdegoddi": 6150,
      "ĠlÃ¡vii": 6151,
      "Ã¡mu": 6152,
      "uoÄĳat": 6153,
      "Ġdutkit": 6154,
      "jord": 6155,
      "arie": 6156,
      "ĠSm": 6157,
      "ĠgaÅ¾aldat": 6158,
      "Ġetn": 6159,
      "eadj": 6160,
      "aiga": 6161,
      "Ġmiellahtt": 6162,
      "ĠBongo": 6163,
      "itÃ¡la": 6164,
      "konferÃ¡n": 6165,
      "Ġolbmui": 6166,
      "Ġeahpes": 6167,
      "Ġdet": 6168,
      "bmob": 6169,
      "ĠLÃ¡v": 6170,
      "ahkan": 6171,
      "ĠmieÄĳiha": 6172,
      "Guovdageaidnu": 6173,
      "pÃ¡": 6174,
      "ĠLaila": 6175,
      "usas": 6176,
      "ĠNuoraid": 6177,
      "essor": 6178,
      "ĠlÃ¡vddi": 6179,
      "ĠkonvenÅ¡": 6180,
      "ĠTore": 6181,
      "ĠbahÃ¡": 6182,
      "Ġeahket": 6183,
      "Ġmaidda": 6184,
      "ĠrÃ¡ÄĳÄĳÃ¡d": 6185,
      "eassagovva": 6186,
      "Ġgaskavahku": 6187,
      "ĠRoa": 6188,
      "ĠdeavdÃ¡": 6189,
      "Ġbovden": 6190,
      "mann": 6191,
      "ĠSv": 6192,
      "Ġjoavkkuin": 6193,
      "Sa": 6194,
      "alde": 6195,
      "issui": 6196,
      "Ġorohaga": 6197,
      "ĠLyng": 6198,
      "ĠalmmolaÄįÄįat": 6199,
      "oares": 6200,
      "Ġmiljon": 6201,
      "ĠbearraÅ¡a": 6202,
      "ĠÃ¥": 6203,
      "ahedje": 6204,
      "Ã¡igeahÄį": 6205,
      "ĠrÃ¡fi": 6206,
      "ivuoÄĳa": 6207,
      "Ġeatnamis": 6208,
      "Ġlihkostuvvan": 6209,
      "Ġpolitihka": 6210,
      "Ro": 6211,
      "ĠLo": 6212,
      "Ġrievdad": 6213,
      "iessu": 6214,
      "Ã¡ralaÅ¡": 6215,
      "Ġca": 6216,
      "ohppii": 6217,
      "asjok": 6218,
      "Ġgielas": 6219,
      "ahttet": 6220,
      "Ġheaitit": 6221,
      "ĠÄįohkkÃ¡t": 6222,
      "ĠvuoigatvuoÄĳ": 6223,
      "pekt": 6224,
      "ĠvÃ¡lde": 6225,
      "ĠRav": 6226,
      "ĠÃ¡lge": 6227,
      "Ġdavvir": 6228,
      "isti": 6229,
      "Ġguoli": 6230,
      "ĠPorsÃ¡Åĭggus": 6231,
      "jÃ¤rvi": 6232,
      "Ġalmmuha": 6233,
      "Ber": 6234,
      "Ġhar": 6235,
      "ÃģÅ¡Å¡": 6236,
      "ĠealÃ¡husa": 6237,
      "eaiggÃ¡dat": 6238,
      "ĠÄįÃ¡hci": 6239,
      "onn": 6240,
      "ĠSig": 6241,
      "doal": 6242,
      "Ġrukses": 6243,
      "ĠGirjj": 6244,
      "ĠÄįuovvovaÅ¡": 6245,
      "Ġoidnosii": 6246,
      "httii": 6247,
      "Ġvuorb": 6248,
      "Ġservet": 6249,
      "ĠlÃ¡gideaddjit": 6250,
      "erema": 6251,
      "vuovd": 6252,
      "Ã¡ikkis": 6253,
      "annes": 6254,
      "Ġaviisa": 6255,
      "iva": 6256,
      "Ġallaskuvla": 6257,
      "Ġmerk": 6258,
      "33": 6259,
      "Ġdadjet": 6260,
      "ĠGol": 6261,
      "Ġbargov": 6262,
      "ĠlÃ¡vlagiid": 6263,
      "fitnodat": 6264,
      "Ġgielddat": 6265,
      "ĠTrosten": 6266,
      "Ġrolla": 6267,
      "ĠlÃ¡hpp": 6268,
      "agoahtÃ¡": 6269,
      "lÃ¡vdegotti": 6270,
      "sÃ¡mi": 6271,
      "Ġlossa": 6272,
      "ĠlÃ¡vd": 6273,
      "ĠSy": 6274,
      "Ġboazodoallo": 6275,
      "Ġruvked": 6276,
      "ĠearÃ¡lÃ¡gan": 6277,
      "Ġgeaf": 6278,
      "eana": 6279,
      "Ã¡lmasa": 6280,
      "Ġkilomehtera": 6281,
      "ĠhÃ¡mis": 6282,
      "Ġeamit": 6283,
      "ĠvÃ¡imm": 6284,
      "Ġortnegis": 6285,
      "ĠjÃ¡mii": 6286,
      "ĠGunnar": 6287,
      "Ġguliid": 6288,
      "Ġgielddaid": 6289,
      "Ġjienastus": 6290,
      "Ġmoj": 6291,
      "Ġind": 6292,
      "ustis": 6293,
      "Ġfitnan": 6294,
      "ĠvÃ¡ttisvuohta": 6295,
      "Ġnjoamm": 6296,
      "ĠÄįier": 6297,
      "Ġbeasan": 6298,
      "ĠEinar": 6299,
      "ĠlÃ¡gaid": 6300,
      "ĠieÅ¡mearr": 6301,
      "ĠÄįiev": 6302,
      "Ġviell": 6303,
      "uro": 6304,
      "uÄĳaid": 6305,
      "vuodjin": 6306,
      "ĠĠĠĠĠĠĠĠĠĠĠĠĠĠĠĠ": 6307,
      "ĠvÃ¡lljejuvvon": 6308,
      "Ġsoaitte": 6309,
      "Ġviiddis": 6310,
      "ĠfÃ¡rret": 6311,
      "ddÃ¡n": 6312,
      "utki": 6313,
      "Ã¸n": 6314,
      "ĠguÄĳet": 6315,
      "ĠSÃ¡B": 6316,
      "Ġluotta": 6317,
      "Ġgalggan": 6318,
      "Ġsoaitt": 6319,
      "Ġnissonolbmot": 6320,
      "ĠMuit": 6321,
      "ĠvuorkÃ¡govva": 6322,
      "presid": 6323,
      "Ã¡laÅ¡vuohta": 6324,
      "ĠÄįuoggÃ¡": 6325,
      "ĠDal": 6326,
      "Ġ2017": 6327,
      "ĠÃ¡Å¡Å¡Ã¡sku": 6328,
      "ĠÄįÃ¡jehii": 6329,
      "Ġgeahpp": 6330,
      "ĠgÃ¡ibÃ¡dus": 6331,
      "ĠMÃ¡nÃ¡t": 6332,
      "Ġ46": 6333,
      "barggus": 6334,
      "ĠJesusa": 6335,
      "vuor": 6336,
      "ĠlÃ¡hÄį": 6337,
      "ĠAnte": 6338,
      "Ġ45": 6339,
      "Ġatnet": 6340,
      "ĠviÄĳ": 6341,
      "Ġservodahkii": 6342,
      "Ġkultuvrras": 6343,
      "ĠvÃ¡sÃ¡husaid": 6344,
      "ĠMoai": 6345,
      "ĠmÃ¡vssolaÅ¡": 6346,
      "Ġdarv": 6347,
      "esta": 6348,
      "Ġsuohkaniin": 6349,
      "Ġdeattuhit": 6350,
      "ĠÃģnde": 6351,
      "ĠÄįorget": 6352,
      "Ġjer": 6353,
      "eri": 6354,
      "elahttu": 6355,
      "Ã¡vvordaga": 6356,
      "Ġjierpm": 6357,
      "Ġbuorrin": 6358,
      "anii": 6359,
      "Ġgirjer": 6360,
      "agasas": 6361,
      "erii": 6362,
      "Ġjohtilit": 6363,
      "ĠLuondd": 6364,
      "adoaimm": 6365,
      "ĠsÃ¡mÃ¡st": 6366,
      "Ã¡vvir": 6367,
      "eriid": 6368,
      "ĠdÃ¡ht": 6369,
      "cealk": 6370,
      "ĠGurut": 6371,
      "ĠmÃ¡inn": 6372,
      "irjji": 6373,
      "ĠÄįaÄĳahan": 6374,
      "Ġlossat": 6375,
      "ĠDet": 6376,
      "oaibma": 6377,
      "ĠGÃ¡ivuona": 6378,
      "aluo": 6379,
      "alÃ¡Å¡tallan": 6380,
      "kul": 6381,
      "ĠKur": 6382,
      "Ġilludit": 6383,
      "Ġlobihis": 6384,
      "Ġkultuvrii": 6385,
      "ĠÃ¡lbmogiid": 6386,
      "ĠhÃ¡lbb": 6387,
      "ĠÃ¡rvvoÅ¡tallan": 6388,
      "Ġmoar": 6389,
      "idna": 6390,
      "ĠvÃ¡ib": 6391,
      "itto": 6392,
      "ĠÃ¡sset": 6393,
      "Ã¡mma": 6394,
      "Ġnammii": 6395,
      "ĠvÃ¡rrogas": 6396,
      "vla": 6397,
      "Ġletne": 6398,
      "erie": 6399,
      "ĠMagne": 6400,
      "ĠvÃ¡ldon": 6401,
      "Ġ195": 6402,
      "Ġdolv": 6403,
      "adni": 6404,
      "ssen": 6405,
      "ĠdÃ¡lve": 6406,
      "ĠveahkavÃ¡ldd": 6407,
      "Pors": 6408,
      "ĠÄįeahppi": 6409,
      "vuotna": 6410,
      "uld": 6411,
      "ĠvuostÃ¡last": 6412,
      "iil": 6413,
      "mmain": 6414,
      "Ãģvvir": 6415,
      "Ġdietn": 6416,
      "La": 6417,
      "anja": 6418,
      "ddel": 6419,
      "Ġvuon": 6420,
      "Ġbokt": 6421,
      "ĠBarents": 6422,
      "Ġost": 6423,
      "ĠMal": 6424,
      "iÅ¡goahtÃ¡n": 6425,
      "Ġ90": 6426,
      "Ġulbmilin": 6427,
      "dat": 6428,
      "Ġ+": 6429,
      "Ġinstit": 6430,
      "Ã¡ÄĳÄĳehusa": 6431,
      "ĠÃ¡vÅ¾Å¾uhit": 6432,
      "TB": 6433,
      "kkain": 6434,
      "ikop": 6435,
      "konvenÅ¡": 6436,
      "eatt": 6437,
      "ĠDearvvaÅ¡": 6438,
      "ĠLill": 6439,
      "Ġbissu": 6440,
      "ĠvÃ¡hnemiid": 6441,
      "ĠvÃ¡ilu": 6442,
      "Ġossodat": 6443,
      "iikkaid": 6444,
      "Ġbeagg": 6445,
      "Ġovdam": 6446,
      "ĠsÃ¡htte": 6447,
      "Ġgilval": 6448,
      "ĠoÄĳÄĳajagim": 6449,
      "Ollu": 6450,
      "sÃ¡n": 6451,
      "Ġgerg": 6452,
      "Ġgolli": 6453,
      "adas": 6454,
      "ĠJak": 6455,
      "Ġlasih": 6456,
      "Ġsisdoalu": 6457,
      "Ġjuoll": 6458,
      "Ġsuohkanii": 6459,
      "ĠÃ¡lggu": 6460,
      "Buorre": 6461,
      "Ġnuoskk": 6462,
      "70": 6463,
      "gis": 6464,
      "Ġnark": 6465,
      "tii": 6466,
      "ariid": 6467,
      "enÅ¡": 6468,
      "Ġhal": 6469,
      "Ġlohpida": 6470,
      "iill": 6471,
      "Ġdoavttir": 6472,
      "Ġjohtit": 6473,
      "Ġvuollel": 6474,
      "ĠgelbbolaÅ¡vuohta": 6475,
      "Ġamb": 6476,
      "ĠKÃ¡r": 6477,
      "ĠÃ¡rrat": 6478,
      "ĠhÃ¡stalusat": 6479,
      "ĠILO": 6480,
      "ĠFylkkamÃ¡nni": 6481,
      "Ġroasmm": 6482,
      "ĠÄįadnon": 6483,
      "ĠKÃ¥ven": 6484,
      "Ã¡ikÃ¡i": 6485,
      "ĠOhcejogas": 6486,
      "ĠvÃ¡nh": 6487,
      "eand": 6488,
      "eavstta": 6489,
      "son": 6490,
      "ĠSe": 6491,
      "Ã¤l": 6492,
      "ĠLeavnnjas": 6493,
      "HearrÃ¡": 6494,
      "Å¾is": 6495,
      "ĠRune": 6496,
      "ĠId": 6497,
      "ĠStore": 6498,
      "ealli": 6499,
      "ĠKristian": 6500,
      "ĠStein": 6501,
      "Ã¡laid": 6502,
      "Ġfanas": 6503,
      "Ġsturr": 6504,
      "Ġcup": 6505,
      "mmalla": 6506,
      "Ã¡dagas": 6507,
      "ĠÄįiegus": 6508,
      "ĠÃ¡rvala": 6509,
      "Ġanal": 6510,
      "ĠHermansen": 6511,
      "bivd": 6512,
      "ĠÄįal": 6513,
      "ĠbihtÃ¡": 6514,
      "Ã¡hkkestaga": 6515,
      "keahtes": 6516,
      "jaid": 6517,
      "ksa": 6518,
      "ry": 6519,
      "uÅ¡Å¡at": 6520,
      "acebo": 6521,
      "Ġ)": 6522,
      "oahti": 6523,
      "Ġnorgga": 6524,
      "âĢĶ": 6525,
      "Ġsajiin": 6526,
      "ĠLarsson": 6527,
      "ĠmihÃ¡": 6528,
      "aheaddjit": 6529,
      "ĠstÃ¡d": 6530,
      "ĠOvdamearkka": 6531,
      "Ġmuhtumat": 6532,
      "Ġgeavaheami": 6533,
      "Ã¡iddu": 6534,
      "________________________________": 6535,
      "rustteg": 6536,
      "ĠSch": 6537,
      "Ġbivdo": 6538,
      "Ġolus": 6539,
      "skog": 6540,
      "Ġorrun": 6541,
      "SÃ¡medigg": 6542,
      "ĠÄįÃ¡lli": 6543,
      "Ġunnimusat": 6544,
      "Ġbajimus": 6545,
      "ĠBiras": 6546,
      "VDAG": 6547,
      "usal": 6548,
      "ĠSG": 6549,
      "uvve": 6550,
      "ĠÄįÃ¡llet": 6551,
      "ĠvÃ¡ivv": 6552,
      "Oll": 6553,
      "tas": 6554,
      "ibun": 6555,
      "tu": 6556,
      "Ã¡ras": 6557,
      "Äįoahkkimii": 6558,
      "ĠSandvik": 6559,
      "Ġ1998": 6560,
      "ĠpolitihkkÃ¡rat": 6561,
      "Ã¡vpog": 6562,
      "ĠÃ¡idd": 6563,
      "Ã¡rdni": 6564,
      "Ġkol": 6565,
      "Ġrehket": 6566,
      "ĠBoazos": 6567,
      "ĠBÃ¡kt": 6568,
      "Ã¡din": 6569,
      "Ġboag": 6570,
      "ĠVÃ¡rjj": 6571,
      "Ġmuhtumin": 6572,
      "Ã¡vval": 6573,
      "Ġhirbm": 6574,
      "ĠvuoÄĳu": 6575,
      "ĠÃģvviris": 6576,
      "Ġvuoittu": 6577,
      "ĠLiikkÃ¡": 6578,
      "ures": 6579,
      "Ġtlf": 6580,
      "ĠÄįalmmustahttit": 6581,
      "adeamis": 6582,
      "Boaz": 6583,
      "Ġlul": 6584,
      "rateg": 6585,
      "Ġbol": 6586,
      "ĠHearr": 6587,
      "Ġriekt": 6588,
      "vuoddji": 6589,
      "Ġgaskamear": 6590,
      "ĠmÃ¡idn": 6591,
      "ĠvÃ¡ilevaÅ¡": 6592,
      "Ġnjuovah": 6593,
      "bÃ¡ikkis": 6594,
      "bÃ¡iki": 6595,
      "ĠÄįask": 6596,
      "ode": 6597,
      "Ġeinn": 6598,
      "askk": 6599,
      "ĠoahpÃ¡sn": 6600,
      "ĠMienna": 6601,
      "arÃ¡j": 6602,
      "Ġceav": 6603,
      "ĠoainnÃ¡n": 6604,
      "ĠFinnmÃ¡rkui": 6605,
      "ahtton": 6606,
      "ue": 6607,
      "Ġjuoigat": 6608,
      "mmallahti": 6609,
      "ĠEal": 6610,
      "ĠNorgii": 6611,
      "ĠiÄĳ": 6612,
      "Ã¡rra": 6613,
      "kkai": 6614,
      "Ġdoaluide": 6615,
      "ĠduogÃ¡Å¡": 6616,
      "ĠDiibmÃ¡": 6617,
      "ĠDattetge": 6618,
      "ĠÄįiehk": 6619,
      "ĠgirjjÃ¡laÅ¡vuoÄĳa": 6620,
      "ĠdÃ¡si": 6621,
      "ĠsÃ¡ddejuvvo": 6622,
      "ĠToril": 6623,
      "ĠdÃ¡hpÃ¡husaid": 6624,
      "ĠAndreas": 6625,
      "Ġbirge": 6626,
      "ĠAlta": 6627,
      "Rie": 6628,
      "gea": 6629,
      "oass": 6630,
      "ĠJÃ¥": 6631,
      "ĠmÃ¡nus": 6632,
      "ester": 6633,
      "ĠgieÄĳaid": 6634,
      "03": 6635,
      "Å¾Å¾ii": 6636,
      "ĠâĢĺ": 6637,
      "Ġhearge": 6638,
      "ĠFrank": 6639,
      "48": 6640,
      "itu": 6641,
      "Ġkonsearta": 6642,
      "ĠgirjeÄįÃ¡lli": 6643,
      "ĠduÄĳ": 6644,
      "Ġnohkk": 6645,
      "Ġveadje": 6646,
      "Ġlihkku": 6647,
      "ĠvÃ¡nddar": 6648,
      "Ã¡ste": 6649,
      "Ġkan": 6650,
      "Ġsuhtt": 6651,
      "ĠÃģvvira": 6652,
      "pÃ¤Ã¤": 6653,
      "oaÄĳi": 6654,
      "llasaÅ¡": 6655,
      "VuorkÃ¡govva": 6656,
      "ĠBoahtte": 6657,
      "Ġstuorimus": 6658,
      "Ġeanetlohku": 6659,
      "Ġunoh": 6660,
      "Ã¡rbb": 6661,
      "Ġnomin": 6662,
      "ĠSÃ¡meg": 6663,
      "ume": 6664,
      "Ġunnimus": 6665,
      "ĠSkog": 6666,
      "okta": 6667,
      "ĠsoaÄĳi": 6668,
      "Ġgovas": 6669,
      "eahÄįa": 6670,
      "mater": 6671,
      "Ġriid": 6672,
      "ĠsÃ¡dde": 6673,
      "Ġgeasset": 6674,
      "Ġatnui": 6675,
      "Ġbovde": 6676,
      "IeÅ¡": 6677,
      "Ġ=": 6678,
      "ĠlÃ¡vll": 6679,
      "ĠFinnmÃ¡rkkuopm": 6680,
      "ĠFred": 6681,
      "ĠAmund": 6682,
      "BB": 6683,
      "ĠBiti": 6684,
      "uhcc": 6685,
      "ĠlÃ¡s": 6686,
      "ĠbÃ¡ikenamaid": 6687,
      "Ġballet": 6688,
      "Ã¡igg": 6689,
      "Ġboazodoalli": 6690,
      "Ġovcci": 6691,
      "jÃ¡s": 6692,
      "istta": 6693,
      "Ġmearra": 6694,
      "Ġgeassit": 6695,
      "Ġovdamearka": 6696,
      "ĠsadjÃ¡saÅ¡": 6697,
      "SÃģPMI": 6698,
      "ĠFinnmÃ¡rku": 6699,
      "Ġnumm": 6700,
      "Ġboald": 6701,
      "iÃ¡las": 6702,
      "Ġgielaid": 6703,
      "oahpahusa": 6704,
      "ĠbÃ¡lval": 6705,
      "eai": 6706,
      "ĠbÃ¡hÄįÄį": 6707,
      "agillii": 6708,
      "ĠbÃ¡lvalus": 6709,
      "Ohcan": 6710,
      "Beaivv": 6711,
      "ĠÂ": 6712,
      "Ġneal": 6713,
      "Ġpolitiija": 6714,
      "ALL": 6715,
      "MA": 6716,
      "Åĭk": 6717,
      "Ġheivehit": 6718,
      "Ġvud": 6719,
      "ĠOllu": 6720,
      "Ġ97": 6721,
      "eisevÃ¡ldd": 6722,
      "ĠÄįuol": 6723,
      "Ġgaskii": 6724,
      "ĠTrond": 6725,
      "ĠvÃ¡ikkuhusaid": 6726,
      "VDAGEA": 6727,
      "duo": 6728,
      "Ġmol": 6729,
      "ĠHeaika": 6730,
      "iidLÃ¡g": 6731,
      "ĠÄįor": 6732,
      "adahkk": 6733,
      "ĠBadje": 6734,
      "Ġgeasse": 6735,
      "ĠEll": 6736,
      "Ġ2001": 6737,
      "isevÃ¡ld": 6738,
      "fa": 6739,
      "Ġboazu": 6740,
      "Ġdiggego": 6741,
      "uolbm": 6742,
      "ĠiÄĳit": 6743,
      "kuvllain": 6744,
      "Ġdoalvut": 6745,
      "RO": 6746,
      "Ã¡lvv": 6747,
      "Ġgili": 6748,
      "aguovddÃ¡Å¾is": 6749,
      "And": 6750,
      "ĠÄįuvvon": 6751,
      "Ġlohka": 6752,
      "ĠbÃ¡ljo": 6753,
      "ĠlÃ¡giduvvojit": 6754,
      "Ġnalde": 6755,
      "Ã¥l": 6756,
      "Ġruovttu": 6757,
      "ahoavda": 6758,
      "Ġ33": 6759,
      "ĠfylkkamÃ¡nni": 6760,
      "ĠstivrajoÄĳiheaddji": 6761,
      "ĠbÃ¡hppa": 6762,
      "Ġfierpm": 6763,
      "amusat": 6764,
      "Ġeambb": 6765,
      "Ġloguid": 6766,
      "aÅ¾Å¾an": 6767,
      "ĠJovnna": 6768,
      "buvtt": 6769,
      "emeahttun": 6770,
      "Ġseavdn": 6771,
      "ĠruoÅ§": 6772,
      "entii": 6773,
      "amuÅ¡aid": 6774,
      "Ġbohtosat": 6775,
      "Ġdollet": 6776,
      "upmÃ¡i": 6777,
      "andi": 6778,
      "luohk": 6779,
      "ĠjÃ¡nd": 6780,
      "eamin": 6781,
      "Ġeanandoall": 6782,
      "Ã¡igemearri": 6783,
      "aministtar": 6784,
      "ĠDakkÃ¡r": 6785,
      "Ġvuoig": 6786,
      "ĠvuoÄĳÄĳu": 6787,
      "sletta": 6788,
      "Ġgilvvuin": 6789,
      "Luo": 6790,
      "Ġbala": 6791,
      "ĠÅ¡ib": 6792,
      "Ġsuohkanat": 6793,
      "jÃ¡rga": 6794,
      "Ġdoaibmab": 6795,
      "Dalle": 6796,
      "instit": 6797,
      "isab": 6798,
      "Ġhearv": 6799,
      "bmui": 6800,
      "ainen": 6801,
      "Ġgoddit": 6802,
      "ĠdÃ¡ssÃ¡i": 6803,
      "iduvvot": 6804,
      "ĠSuohkan": 6805,
      "ĠDus": 6806,
      "ĠÄįÃ¡llon": 6807,
      "oaÄĳ": 6808,
      "innalÃ¡g": 6809,
      "Ġdakko": 6810,
      "ĠÄįuoÄĳi": 6811,
      "ĠriegÃ¡danb": 6812,
      "Ġrievssat": 6813,
      "Ġoasis": 6814,
      "Ġluossabivd": 6815,
      "ĠhÃ¡hkat": 6816,
      "ĠvuosttaÅ¾ettiin": 6817,
      "sman": 6818,
      "ustÃ¡v": 6819,
      "ĠlassÃ¡na": 6820,
      "ĠThor": 6821,
      "ĠSeamma": 6822,
      "ĠfÃ¡mu": 6823,
      "eke": 6824,
      "uorgg": 6825,
      "ĠGonagas": 6826,
      "Ġmuohtt": 6827,
      "iÅ¡goÄĳii": 6828,
      "46": 6829,
      "fÃ¡pm": 6830,
      "uhttÃ¡n": 6831,
      "ĠAnton": 6832,
      "ĠgelbbolaÅ¡vuoÄĳa": 6833,
      "uolggadusaid": 6834,
      "ÄĲASA": 6835,
      "Ġballat": 6836,
      "uhttÃ¡": 6837,
      "iinnis": 6838,
      "oaldd": 6839,
      "uto": 6840,
      "uvuo": 6841,
      "ĠBell": 6842,
      "Ġmana": 6843,
      "ĠdeaÅ§alaÅ¡": 6844,
      "ivve": 6845,
      "ĠUSA": 6846,
      "Ġ1999": 6847,
      "Gul": 6848,
      "lÃ¡ga": 6849,
      "ĠgÃ¡ld": 6850,
      "emear": 6851,
      "Å¾Å¾et": 6852,
      "Ġee": 6853,
      "John": 6854,
      "Ġ...": 6855,
      "ĠsiskkÃ¡ldas": 6856,
      "MÃ¡nÃ¡id": 6857,
      "ĠMannan": 6858,
      "ohii": 6859,
      "ĠsÃ¡pmelaÄįÄįain": 6860,
      "ĠElin": 6861,
      "ĠnjunnoÅ¡": 6862,
      "eannud": 6863,
      "ĠÃ¡rt": 6864,
      "ĠÃ¡rvvu": 6865,
      "ĠSÃ¡mediggerÃ¡ÄĳÄĳi": 6866,
      "ĠThomas": 6867,
      "blad": 6868,
      "Ġgeasa": 6869,
      "Ġduodj": 6870,
      "Ġfilmmas": 6871,
      "Inga": 6872,
      "ĠÄįalmmiid": 6873,
      "innalÃ¡giin": 6874,
      "Ġvirgg": 6875,
      "Ġvilges": 6876,
      "98": 6877,
      "edr": 6878,
      "Ã¡htas": 6879,
      "ĠKlemetsen": 6880,
      "umii": 6881,
      "Ġkrit": 6882,
      "Ġluohte": 6883,
      "ihttÃ¡": 6884,
      "ĠdivÅ¡Å¡": 6885,
      "edagog": 6886,
      "vvui": 6887,
      "uvra": 6888,
      "ĠÃ¡Å¡Å¡iide": 6889,
      "allamiidda": 6890,
      "Ġmunno": 6891,
      "ĠvÃ¡lgabii": 6892,
      "ohan": 6893,
      "vuoigatvuoÄĳa": 6894,
      "ĠSirpm": 6895,
      "bÃ¡ikki": 6896,
      "ĠmearrasÃ¡mi": 6897,
      "Ġpassii": 6898,
      "Ġviehka": 6899,
      "Ġguovtte": 6900,
      "UOR": 6901,
      "Muit": 6902,
      "HTT": 6903,
      "ĠÄįuvvot": 6904,
      "Ã¡htu": 6905,
      "ĠgÃ¡vtti": 6906,
      "ĠviidÃ¡t": 6907,
      "Ã¡saÅ¾Å¾an": 6908,
      "Ġfilmmaid": 6909,
      "ĠÄįuovvol": 6910,
      "ĠfÃ¡ddÃ¡": 6911,
      "Ġeavttuid": 6912,
      "astat": 6913,
      "ĠAllas": 6914,
      "ĠgirjeÄįÃ¡ll": 6915,
      "Ãĺ": 6916,
      "Ġehpet": 6917,
      "aÅ¡is": 6918,
      "ĠThe": 6919,
      "ĠÃ¡igodaga": 6920,
      "ustit": 6921,
      "Ġalddis": 6922,
      "Ġgeavat": 6923,
      "Ġmoait": 6924,
      "ĠÃĺst": 6925,
      "ĠoastÃ¡n": 6926,
      "acebook": 6927,
      "Manne": 6928,
      "Odne": 6929,
      "ec": 6930,
      "jov": 6931,
      "Ġand": 6932,
      "ieida": 6933,
      "Ġbirgej": 6934,
      "Ġcea": 6935,
      "Ġdagahii": 6936,
      "ĠfÃ¡llÃ¡": 6937,
      "ĠJerusal": 6938,
      "Ġoz": 6939,
      "Ġvej": 6940,
      "ĠFestiv": 6941,
      "ĠlÃ¡vlla": 6942,
      "Boahtte": 6943,
      "htat": 6944,
      "adigg": 6945,
      "ĠNik": 6946,
      "ĠBu": 6947,
      "ĠHei": 6948,
      "ĠSVL": 6949,
      "ageahÄį": 6950,
      "ĠmÃ¡tkki": 6951,
      "Ġvujii": 6952,
      "ĠmearkkaÅ¡upmi": 6953,
      "Ġ75": 6954,
      "El": 6955,
      "rÃ¡ÄĳÄĳi": 6956,
      "ile": 6957,
      "proÅ¡eakta": 6958,
      "ĠÄįuogg": 6959,
      "ÄĮÃ¡ll": 6960,
      "Ġdahke": 6961,
      "Ġbargoj": 6962,
      "Ġalmmust": 6963,
      "Ġteor": 6964,
      "Ġmediain": 6965,
      "Ġdaddjo": 6966,
      "feastta": 6967,
      "Ġlogu": 6968,
      "hÄįÄįi": 6969,
      "muit": 6970,
      "Ġatte": 6971,
      "ĠsÃ¡mediggevÃ¡l": 6972,
      "buÅ¡": 6973,
      "ĠÄįÃ¡hppes": 6974,
      "ĠRÃ¡vdn": 6975,
      "ĠÃ¡vdn": 6976,
      "ĠplÃ¡naid": 6977,
      "ĠdigaÅ¡tallat": 6978,
      "ĠBl": 6979,
      "ĠSÃ¡ht": 6980,
      "ĠVÃ¡ld": 6981,
      "Ġrivttiid": 6982,
      "Ġosiid": 6983,
      "ush": 6984,
      "Ġradio": 6985,
      "Ã¡dan": 6986,
      "ajoavkku": 6987,
      "ĠBals": 6988,
      "47": 6989,
      "Oa": 6990,
      "ĠolgeÅ¡": 6991,
      "Ġkat": 6992,
      "bor": 6993,
      "Ġindi": 6994,
      "Ġhehtt": 6995,
      "ĠmÃ¡tkkis": 6996,
      "Ġaviissa": 6997,
      "festivÃ¡las": 6998,
      "ĠOlmmÃ¡ivÃ¡": 6999,
      "Ġjuv": 7000,
      "Ġluov": 7001,
      "ĠmÃ¡Åĭggas": 7002,
      "Ġgaskavahkku": 7003,
      "Ġbnr": 7004,
      "idat": 7005,
      "ĠsmÃ¡v": 7006,
      "Ġhomof": 7007,
      "ohkam": 7008,
      "gillii": 7009,
      "Ġealgga": 7010,
      "ĠÄįohkken": 7011,
      "Ġenerg": 7012,
      "rraid": 7013,
      "ĠÄįÃ¡llojuvvon": 7014,
      "oaimma": 7015,
      "Ġmuhtimat": 7016,
      "Ġoallugat": 7017,
      "aldahk": 7018,
      "Ã¡lu": 7019,
      "Ġeatni": 7020,
      "ĠMÃ¡rkom": 7021,
      "Ġeahpit": 7022,
      "ua": 7023,
      "Ġbas": 7024,
      "ddara": 7025,
      "ĠMikkelsen": 7026,
      "ĠMur": 7027,
      "Ġdoahp": 7028,
      "Ġnamuhuvvon": 7029,
      "ĠjoÄĳiha": 7030,
      "ĠMathisen": 7031,
      "ĠmÃ¡tkkoÅ¡tit": 7032,
      "ĠmÃ¡ilbmÃ¡i": 7033,
      "osk": 7034,
      "ĠÃ¡iggui": 7035,
      "ĠÄįilgii": 7036,
      "Ġdutkat": 7037,
      "Ġseksu": 7038,
      "ĠAslaksen": 7039,
      "Ġohppet": 7040,
      "esa": 7041,
      "Ġlassi": 7042,
      "ĠÄįiekÄįan": 7043,
      "ĠBuorre": 7044,
      "kkan": 7045,
      "ĠvuossÃ¡rgga": 7046,
      "Ġbeaht": 7047,
      "astÃ¡n": 7048,
      "abeaivvi": 7049,
      "Ġrahpat": 7050,
      "ĠbistevaÅ¡": 7051,
      "ĠRavna": 7052,
      "vald": 7053,
      "ĠlÃ¡vdegotti": 7054,
      "Ġjier": 7055,
      "Ġdoalai": 7056,
      "Ġmil": 7057,
      "Ġihttin": 7058,
      "AD": 7059,
      "ĠSal": 7060,
      "ihkohis": 7061,
      "ĠseammalÃ¡gan": 7062,
      "ĠJuuso": 7063,
      "Ġdust": 7064,
      "ĠRob": 7065,
      "ĠdÃ¡hto": 7066,
      "Ġlohpidan": 7067,
      "iivvalaÄįÄįat": 7068,
      "Ġguossit": 7069,
      "Ġmorf": 7070,
      "DÃ¡id": 7071,
      "ĠKal": 7072,
      "ĠĠĠ": 7073,
      "ĠfÃ¡pmu": 7074,
      "ĠRasmussen": 7075,
      "skuvla": 7076,
      "Ã¡lus": 7077,
      "obarg": 7078,
      "ilju": 7079,
      "ĠgoÄĳÄĳ": 7080,
      "ĠLeif": 7081,
      "IDNU": 7082,
      "Ġellet": 7083,
      "Ã¤nsman": 7084,
      "Da": 7085,
      "gadit": 7086,
      "por": 7087,
      "Ġho": 7088,
      "ĠLemet": 7089,
      "Ġnjoar": 7090,
      "ĠÄįiekÄįi": 7091,
      "ĠÃ¡hÄįis": 7092,
      "ĠRoger": 7093,
      "Ã¡Å¾iin": 7094,
      "vllÃ¡": 7095,
      "ĠvÃ¡ivi": 7096,
      "Ġvistti": 7097,
      "ĠluÄĳiid": 7098,
      "Ġadvok": 7099,
      "ling": 7100,
      "Ġform": 7101,
      "uheapmi": 7102,
      "Ġniehk": 7103,
      "Ġguoros": 7104,
      "ĠborramuÅ¡a": 7105,
      "ĠgiÄĳÄĳat": 7106,
      "ĠseminÃ¡ra": 7107,
      "Ġdoaivva": 7108,
      "Ã¸ran": 7109,
      "Ġbivttas": 7110,
      "ĠGÃ¡ivuonas": 7111,
      "EL": 7112,
      "ĠfÃ¡sta": 7113,
      "ĠÄįÃ¡pp": 7114,
      "ĠNordsletta": 7115,
      "ndel": 7116,
      "ĠÃģlt": 7117,
      "ĠrÃ¡hkada": 7118,
      "ĠvuordÃ¡muÅ¡at": 7119,
      "FinnmÃ¡r": 7120,
      "beal": 7121,
      "ĠSiv": 7122,
      "Ã¤kk": 7123,
      "Ġvirggi": 7124,
      "ĠhÃ¡lddaÅ¡an": 7125,
      "Ġrievdd": 7126,
      "Ã¡rri": 7127,
      "!âĢĿ": 7128,
      "uvnnalaÅ¡": 7129,
      "Ġ48": 7130,
      "Ġbassi": 7131,
      "ortnet": 7132,
      "ĠEg": 7133,
      "ĠvÃ¡lga": 7134,
      "ice": 7135,
      "illju": 7136,
      "Ã¡hku": 7137,
      "Ġfylkkasuohkan": 7138,
      "ĠbÃ¡dd": 7139,
      "isma": 7140,
      "emiide": 7141,
      "ĠÃ¡lk": 7142,
      "Ġsutt": 7143,
      "kÄįamÃ¡nus": 7144,
      "proÅ¡eavtta": 7145,
      "Ġgudnej": 7146,
      "vir": 7147,
      "adin": 7148,
      "ĠLuj": 7149,
      "ĠmÃ¡ttas": 7150,
      "ĠmÃ¡nÃ¡idgÃ¡rddis": 7151,
      "ĠbÃ¡rtnit": 7152,
      "ĠYLE": 7153,
      "36": 7154,
      "anat": 7155,
      "ĠNisson": 7156,
      "ĠalbmÃ¡": 7157,
      "isttu": 7158,
      "Ġvirgi": 7159,
      "Ġbivddu": 7160,
      "gr": 7161,
      "Ġjuoigg": 7162,
      "ĠÄįiekÄįit": 7163,
      "ĠspÃ¡bbaÄįiekÄįan": 7164,
      "Ã¡dii": 7165,
      "Ġgudni": 7166,
      "Ġ2015": 7167,
      "irektorÃ¡hta": 7168,
      "udn": 7169,
      "ĠmaÅĭit": 7170,
      "ÄĮÄĮ": 7171,
      "eatnamis": 7172,
      "ĠÃ¡rvvoÅ¡tallÃ¡": 7173,
      "ĠÃ¡lggahuvvui": 7174,
      "ĠnÃ¡vddaÅ¡it": 7175,
      "Ġ*": 7176,
      "Ã¡laga": 7177,
      "Ġprakt": 7178,
      "ĠearÃ¡iguin": 7179,
      "ĠÄĮor": 7180,
      "ict": 7181,
      "Ġsmieht": 7182,
      "Ġdeaivvadan": 7183,
      "keapÃ¤Ã¤": 7184,
      "Ġdearvvas": 7185,
      "Ġalmmuhuvvo": 7186,
      "Ġ00": 7187,
      "Ġasto": 7188,
      "Ġrib": 7189,
      "ĠbuolaÅ¡": 7190,
      "Ġfitnodagat": 7191,
      "ĠPieski": 7192,
      "Ġdemok": 7193,
      "Man": 7194,
      "kkÃ¡ld": 7195,
      "ĠgaÅ¾aldagaid": 7196,
      "Ġskuter": 7197,
      "innu": 7198,
      "Ã¡tni": 7199,
      "kÃ¡bm": 7200,
      "ĠhistorjÃ¡": 7201,
      "Ġjorgg": 7202,
      "ĠsÃ¡niiguin": 7203,
      "maÅ¡": 7204,
      "ĠQ": 7205,
      "SÃ¡meg": 7206,
      "sivdn": 7207,
      "ĠhÃ¡rjeheaddji": 7208,
      "Ġrievtti": 7209,
      "ĠMarianne": 7210,
      "ĠoÄĳ": 7211,
      "Ã¡lg": 7212,
      "assiige": 7213,
      "Ġnissonolbmuid": 7214,
      "Ġrupm": 7215,
      "Ġustit": 7216,
      "dagassii": 7217,
      "ideaddjit": 7218,
      "emiidda": 7219,
      "ĠâĢĶ": 7220,
      "ĠdÃ¡rbbaÅ¡at": 7221,
      "eapme": 7222,
      "PK": 7223,
      "VII": 7224,
      "ĠgeahÄįÄįÃ¡": 7225,
      "ĠsÃ¡mediggepresideanta": 7226,
      "ĠHaug": 7227,
      "uohcc": 7228,
      "198": 7229,
      "Ġnjuolggadus": 7230,
      "earrÃ¡igeahÄįÄįu": 7231,
      "39": 7232,
      "MÃ¡z": 7233,
      "Ġbul": 7234,
      "ĠSÃģ": 7235,
      "Ġaitto": 7236,
      "Ġbidjet": 7237,
      "ĠJohttis": 7238,
      "38": 7239,
      "kar": 7240,
      "ĠdehÃ¡laÄįÄįat": 7241,
      "mer": 7242,
      "Ã¡vdda": 7243,
      "egor": 7244,
      "ĠÃ¡vkki": 7245,
      "ĠrÃ¡mbuv": 7246,
      "Ġeastadit": 7247,
      "Ã¡stt": 7248,
      "Ġper": 7249,
      "ĠvÃ¡ralaÅ¡": 7250,
      "ĠsmÃ¡vv": 7251,
      "ĠGirji": 7252,
      "ĠlÃ¡Å¡": 7253,
      "uth": 7254,
      "ĠJovss": 7255,
      "Ãģig": 7256,
      "obsen": 7257,
      "Ġ400": 7258,
      "Ġbiillain": 7259,
      "SÃģMEGIEL": 7260,
      "Mis": 7261,
      "jju": 7262,
      "ĠdÃ¡hpÃ¡husat": 7263,
      "Ġmoatti": 7264,
      "Ġarv": 7265,
      "ĠeamiÃ¡lbmog": 7266,
      "Ġlisttu": 7267,
      "ĠSoaitÃ¡": 7268,
      "istii": 7269,
      "ĠPetter": 7270,
      "ograf": 7271,
      "ĠMarja": 7272,
      "Ġkonfir": 7273,
      "adiggi": 7274,
      "ĠcealkÃ¡n": 7275,
      "Ġskuvllat": 7276,
      "Ġjorgalit": 7277,
      "ĠdÃ¡ssÃ¡Å¾ii": 7278,
      "Ġrohkad": 7279,
      "ĠduÄĳav": 7280,
      "iidLÃ¡gÃ¡dus": 7281,
      "LO": 7282,
      "ĠbÃ¡lg": 7283,
      "Ġluondu": 7284,
      "ĠgÃ¡ddÃ¡i": 7285,
      "ĠgÃ¡ibidan": 7286,
      "ĠboarrÃ¡siid": 7287,
      "ĠÄįovdosa": 7288,
      "ĠsÃ¡htÃ¡Å¡": 7289,
      "Ġgeavahuvvon": 7290,
      "ggepresideanta": 7291,
      "Ġ150": 7292,
      "ĠkonsonÃ¡n": 7293,
      "ĠJÃ¡hkÃ¡n": 7294,
      "irkk": 7295,
      "kkaÅ¡upmi": 7296,
      "Ellen": 7297,
      "ios": 7298,
      "ÄįÄįas": 7299,
      "ĠGuol": 7300,
      "Ġ36": 7301,
      "ĠgÃ¡vdnÃ¡": 7302,
      "Ġgiellad": 7303,
      "Guokte": 7304,
      "etnes": 7305,
      "omen": 7306,
      "ĠattÃ¡ld": 7307,
      "jÃ¡v": 7308,
      "Ġgoask": 7309,
      "ĠOktiibuot": 7310,
      "ĠPeder": 7311,
      "Ġbuollin": 7312,
      "ĠlÃ¡id": 7313,
      "Ã¡sm": 7314,
      "uvrra": 7315,
      "ĠHear": 7316,
      "ejord": 7317,
      "Ġduoji": 7318,
      "rÃ¡Äĳiid": 7319,
      "Ġguovttegielat": 7320,
      "ĠHal": 7321,
      "ĠÃ¡ddjÃ¡": 7322,
      "Ã¤lÃ¤": 7323,
      "alÃ¡vdegotti": 7324,
      "Ġnanne": 7325,
      "ĠbivdÃ¡": 7326,
      "eatnamiid": 7327,
      "GUOVDAGEA": 7328,
      "Ã¡stallan": 7329,
      "Ġtemp": 7330,
      "ikka": 7331,
      "Ġkoar": 7332,
      "Ġoapp": 7333,
      "Ġgilvui": 7334,
      "Ġdavvig": 7335,
      "vÃ¡ttis": 7336,
      "ĠdÃ¡ll": 7337,
      "ĠkÃ¡rÃ¡Å¡j": 7338,
      "ĠUnjÃ¡rggas": 7339,
      "ĠfÃ¡galaÅ¡": 7340,
      "ĠgeavvÃ¡": 7341,
      "ĠdavÃ¡s": 7342,
      "ĠMargrethe": 7343,
      "Ġir": 7344,
      "Ġgis": 7345,
      "enoamÃ¡Å¡": 7346,
      "Ġoaivvi": 7347,
      "âĢĿ,": 7348,
      "ĠnjealjÃ¡t": 7349,
      "Ġjournalista": 7350,
      "astrid": 7351,
      "ĠieÅ¾aska": 7352,
      "Ġproseassa": 7353,
      "ovdÃ¡n": 7354,
      "gol": 7355,
      "hr": 7356,
      "isb": 7357,
      "ĠTretnes": 7358,
      "Ġrev": 7359,
      "ĠMuot": 7360,
      "Ġovddastit": 7361,
      "Ġriekti": 7362,
      "As": 7363,
      "NO": 7364,
      "iipp": 7365,
      "Äĳuid": 7366,
      "vvÃ¡r": 7367,
      "ielsen": 7368,
      "ĠÄįielggadit": 7369,
      "ĠIvar": 7370,
      "44": 7371,
      "Ale": 7372,
      "daga": 7373,
      "ortnega": 7374,
      "kr": 7375,
      "kÃ¡i": 7376,
      "ĠbÃ¡Åĭ": 7377,
      "jel": 7378,
      "DDJ": 7379,
      "Ã¡nis": 7380,
      "Ġmaide": 7381,
      "ĠBre": 7382,
      "Ġstivret": 7383,
      "EAR": 7384,
      "ĠfÃ¡ddÃ¡n": 7385,
      "DI": 7386,
      "avuor": 7387,
      "Ã¡ikki": 7388,
      "ĠEdel": 7389,
      "Ġovddabealde": 7390,
      "Ġ2016": 7391,
      "ĠguolÃ¡stus": 7392,
      "75": 7393,
      "Fil": 7394,
      "asvÃ¡st": 7395,
      "ĠvÃ¡lg": 7396,
      "helander": 7397,
      "Ikte": 7398,
      "ĠlÃ¡dd": 7399,
      "oab": 7400,
      "enj": 7401,
      "ĠPe": 7402,
      "Ġ32": 7403,
      "Ġgaskabodd": 7404,
      "ft": 7405,
      "almas": 7406,
      "ĠFin": 7407,
      "ogrÃ¡f": 7408,
      "aldagaid": 7409,
      "Ġproseanttain": 7410,
      "ĠsÃ¡van": 7411,
      "Ġsuorgan": 7412,
      "ĠgalggaÅ¡edje": 7413,
      "ipp": 7414,
      "Ã¡ndda": 7415,
      "Ġdoiv": 7416,
      "Ġvuoru": 7417,
      "ĠÄįilgeh": 7418,
      "Ġbuohkain": 7419,
      "Ġuhc": 7420,
      "Mo": 7421,
      "hol": 7422,
      "iilla": 7423,
      "ĠTeÃ¡hter": 7424,
      "Ã¡Å¡Å¡is": 7425,
      "Ġgiehta": 7426,
      "ĠvuordÃ¡": 7427,
      "ĠLiv": 7428,
      "eansa": 7429,
      "ĠmÃ¡rkanis": 7430,
      "ĠMat": 7431,
      "ĠlivÄįÄįen": 7432,
      "ugas": 7433,
      "ĠvÃ¡ilot": 7434,
      "Ġluonddug": 7435,
      "MÃ¡ret": 7436,
      "Dasa": 7437,
      "edan": 7438,
      "ĠgielalaÅ¡": 7439,
      "Ġdoaluin": 7440,
      "olbmuin": 7441,
      "rene": 7442,
      "Ġruvke": 7443,
      "Ġceavz": 7444,
      "kv": 7445,
      "ĠleaÅ¡": 7446,
      "vddis": 7447,
      "ejupmi": 7448,
      "ĠÅ¡uoÅĭ": 7449,
      "Ġbiegga": 7450,
      "Ġerohus": 7451,
      "Ġprinsihp": 7452,
      "cup": 7453,
      "kken": 7454,
      "ÄĮÃ¡jÃ¡hus": 7455,
      "ĠÄįuovvolit": 7456,
      "ĠovdÃ¡nan": 7457,
      "ĠvuodjÃ¡n": 7458,
      "Ġolggobeale": 7459,
      "fi": 7460,
      "Ġvikk": 7461,
      "ahttima": 7462,
      "Ġgieskat": 7463,
      "ĠÃģilloh": 7464,
      "elÃ¡gan": 7465,
      "Ġdievd": 7466,
      "Ġ2002": 7467,
      "Ġveadjemeahttun": 7468,
      "Ġje": 7469,
      "Ġoarje": 7470,
      "ĠvÃ¡dj": 7471,
      "Ġnjuor": 7472,
      "Ġluodd": 7473,
      "Ġbiepm": 7474,
      "kalaÅ¡": 7475,
      "Ġsyn": 7476,
      "ĠSan": 7477,
      "ĠrÃ¡d": 7478,
      "nnÃ¸": 7479,
      "rea": 7480,
      "Ġovdamearkan": 7481,
      "ĠgÃ¡lvvuid": 7482,
      "ĠmielddisbuktÃ¡": 7483,
      "Ġgusto": 7484,
      "Ġstivrras": 7485,
      "Ġdovdu": 7486,
      "muk": 7487,
      "Ġhotealla": 7488,
      "Unn": 7489,
      "Ã¡Å¡Å¡iin": 7490,
      "Ġovddal": 7491,
      "Ġkruvnn": 7492,
      "ĠgÃ¡i": 7493,
      "Ġruovd": 7494,
      "ĠÃ¡ige": 7495,
      "ĠeaktodÃ¡htolaÅ¡": 7496,
      "onas": 7497,
      "eminÃ¡ra": 7498,
      "Namma": 7499,
      "ĠoahpÃ¡smuvvat": 7500,
      "Ġjuolludit": 7501,
      "Ġdadje": 7502,
      "asi": 7503,
      "ĠbÃ¡ldd": 7504,
      "esk": 7505,
      "ĠArctic": 7506,
      "kuvllaid": 7507,
      "Ġ1000": 7508,
      "ĠgieÄĳa": 7509,
      "ĠsÃ¡mediggeÃ¡irras": 7510,
      "Ġbaldd": 7511,
      "Ġfylkkagielda": 7512,
      "EarÃ¡": 7513,
      "ohkÃ¡i": 7514,
      "Ġdoahtt": 7515,
      "Ġolle": 7516,
      "unnje": 7517,
      "Gula": 7518,
      "ddet": 7519,
      "ĠOlmmoÅ¡": 7520,
      "ĠjuohkehaÅ¡": 7521,
      "Ġdaguid": 7522,
      "Ġdovddat": 7523,
      "Ġ01": 7524,
      "OtnÃ¡": 7525,
      "Ã¡rin": 7526,
      "ĠJohannes": 7527,
      "NBR": 7528,
      "irpm": 7529,
      "Ġsul": 7530,
      "ĠKari": 7531,
      "ĠÃ¡sahan": 7532,
      "Ġeatnis": 7533,
      "Ġeahkedis": 7534,
      "aÅ¡uvdn": 7535,
      "ĠMeret": 7536,
      "abas": 7537,
      "ĠrÃ¡hkkanit": 7538,
      "dan": 7539,
      "Ġsiidda": 7540,
      "ĠSÃ¡meÃ¡lbmot": 7541,
      "vuoÄĳaide": 7542,
      "ĠdÃ¡hpÃ¡huvvat": 7543,
      "FeFo": 7544,
      "ĠlÃ¡vdegoddi": 7545,
      "Ġbeivviin": 7546,
      "ĠdÃ¡ÄįÄįa": 7547,
      "ĠearÃ¡in": 7548,
      "Ġdovdduid": 7549,
      "ĠlagaÅ¡": 7550,
      "ĠValkeapÃ¤Ã¤": 7551,
      "ĠvÃ¡nddardit": 7552,
      "ĠAilo": 7553,
      "ĠOvtt": 7554,
      "ĠÃģnn": 7555,
      "Ġ95": 7556,
      "ĠplÃ¡nen": 7557,
      "ĠDiet": 7558,
      "Josef": 7559,
      "ĠÄįoahkkimii": 7560,
      "ĠGul": 7561,
      "ĠEven": 7562,
      "ĠÃ¡lot": 7563,
      "Ġbirgen": 7564,
      "ĠgieÄĳas": 7565,
      "ÂłÂłÂłÂł": 7566,
      "Ã¡tne": 7567,
      "Ġnohkan": 7568,
      "Ovdal": 7569,
      "bah": 7570,
      "int": 7571,
      "Ġboazol": 7572,
      "rasis": 7573,
      "ĠMarita": 7574,
      "ĠduoÄĳalaÄįÄįat": 7575,
      "entÃ¡ralaÅ¡": 7576,
      "Ġstudeanttat": 7577,
      "ĠOlles": 7578,
      "Ġgaskan": 7579,
      "Ġjoatk": 7580,
      "ĠDainna": 7581,
      "ĠMonsen": 7582,
      "guovddÃ¡Å¡": 7583,
      "Ã¡gg": 7584,
      "ikal": 7585,
      "Ġjug": 7586,
      "Ġroa": 7587,
      "abut": 7588,
      "ierru": 7589,
      "32": 7590,
      "ovaid": 7591,
      "uÅ¡Å¡ii": 7592,
      "uolu": 7593,
      "ĠmaÅĭÅĭebÃ¡rgga": 7594,
      "ĠlassÃ¡nit": 7595,
      "Ġgarvit": 7596,
      "ĠMÃ¡zes": 7597,
      "Or": 7598,
      "Â©": 7599,
      "adeapmÃ¡i": 7600,
      "Ã¡hat": 7601,
      "Ã¡idn": 7602,
      "astallan": 7603,
      "Ġovddasguvlui": 7604,
      "Ġheittot": 7605,
      "Ġaviisii": 7606,
      "Ġnjuovvat": 7607,
      "ango": 7608,
      "ĠSuo": 7609,
      "vuoddj": 7610,
      "Ã¡vcc": 7611,
      "Ġpolitiijaide": 7612,
      "ĠberreÅ¡ii": 7613,
      "ĠKirsten": 7614,
      "VIISA": 7615,
      "Ġsym": 7616,
      "ealÃ¡husa": 7617,
      "ĠÃ¡dden": 7618,
      "ĠmeahccÃ¡i": 7619,
      "31": 7620,
      "49": 7621,
      "asiidda": 7622,
      "ars": 7623,
      "ageard": 7624,
      "Ġbadjelasas": 7625,
      "ĠAlf": 7626,
      "ĠdÃ¡vjj": 7627,
      "mii": 7628,
      "Ġjoavk": 7629,
      "ppal": 7630,
      "ĠJuh": 7631,
      "ĠiÄĳÄĳ": 7632,
      "ĠsÃ¡gaide": 7633,
      "ĠprogrÃ¡mmas": 7634,
      "ĠsemantihkalaÅ¡": 7635,
      "ew": 7636,
      "Ġnala": 7637,
      "ĠÃģltÃ¡": 7638,
      "ĠGaski": 7639,
      "Ġdiktit": 7640,
      "ĠSim": 7641,
      "Ġaivve": 7642,
      "Ġsuohtast": 7643,
      "Ġisit": 7644,
      "ĠÄįuoÄįÄįuhus": 7645,
      "ĠSolveig": 7646,
      "ĠfÃ¡laldagaid": 7647,
      "htuin": 7648,
      "Ġful": 7649,
      "Ġeuro": 7650,
      "ahusas": 7651,
      "Ġgilvvuide": 7652,
      "Das": 7653,
      "Ġvugiid": 7654,
      "ĠhÃ¡pmi": 7655,
      "ĠÃ¡ssit": 7656,
      "ĠrÃ¡fÃ¡id": 7657,
      "ifis": 7658,
      "Ġbargosajiid": 7659,
      "Ġviellja": 7660,
      "isabeth": 7661,
      "ggamill": 7662,
      "ho": 7663,
      "Ġvuosteh": 7664,
      "Ġ2014": 7665,
      "uopma": 7666,
      "pa": 7667,
      "Ġmilli": 7668,
      "uvvojedje": 7669,
      "Ġpolitihkka": 7670,
      "Ġrock": 7671,
      "Ġdievddu": 7672,
      "allon": 7673,
      "iguin": 7674,
      "Ġburessivdn": 7675,
      "Ġvuite": 7676,
      "ĠSteinar": 7677,
      "kkav": 7678,
      "iidosaÅ¡": 7679,
      "raell": 7680,
      "ĠÄįuojaha": 7681,
      "departemeanta": 7682,
      "Do": 7683,
      "Ġbe": 7684,
      "ĠdÃ¡rbbaÅ¡an": 7685,
      "Ġlundd": 7686,
      "Ġjoatkkaskuvllas": 7687,
      "Ġgeavvan": 7688,
      "Geass": 7689,
      "ly": 7690,
      "osta": 7691,
      "illÃ¡": 7692,
      "Ġsisdoallu": 7693,
      "ĠEgyp": 7694,
      "55": 7695,
      "ĠbustÃ¡v": 7696,
      "ĠLund": 7697,
      "Ġguovdu": 7698,
      "ĠguÄĳe": 7699,
      "Ã¡tti": 7700,
      "Ġeanetlogu": 7701,
      "Ġbuvttii": 7702,
      "ĠvÃ¡hnen": 7703,
      "ĠÄįeahpit": 7704,
      "gihtii": 7705,
      "Ġoahpes": 7706,
      "Ġohcama": 7707,
      "Ġ1990": 7708,
      "kÅ¡uvnna": 7709,
      "bÃ¡lkkaÅ¡umi": 7710,
      "Ġduomu": 7711,
      "ĠproÅ¡ektii": 7712,
      "Ġollugat": 7713,
      "ĠealÃ¡sk": 7714,
      "Ġref": 7715,
      "ĠfinnmÃ¡r": 7716,
      "ĠsearvÃ¡i": 7717,
      "ĠrÃ¡ÄĳÄĳe": 7718,
      "iivvas": 7719,
      "Sis": 7720,
      "ĠSÃ¸r": 7721,
      "ĠmasÃ¡": 7722,
      "ahpir": 7723,
      "Ġstivrala": 7724,
      "joavkk": 7725,
      "ggaide": 7726,
      "ĠÃ¡ndagassii": 7727,
      "Ġliikojit": 7728,
      "Ole": 7729,
      "aks": 7730,
      "Ġortnet": 7731,
      "ossodaga": 7732,
      "kÅ¡uvdna": 7733,
      "Ġbuhtadusa": 7734,
      "Eam": 7735,
      "nt": 7736,
      "ĠMearr": 7737,
      "Ġovdalis": 7738,
      "ĠdÃ¡rbbuid": 7739,
      "ĠÄįaÄĳat": 7740,
      "ÄĲASAVIISA": 7741,
      "Ã¡laÄįÄįaid": 7742,
      "Ġheivv": 7743,
      "Ã¡si": 7744,
      "ĠOÄĲASAVIISA": 7745,
      "ajien": 7746,
      "ĠvÃ¡ttisin": 7747,
      "Ġnamas": 7748,
      "ica": 7749,
      "Ġvissui": 7750,
      "ictoria": 7751,
      "edettiin": 7752,
      "ohat": 7753,
      "Ġguoskk": 7754,
      "ehc": 7755,
      "igoahtit": 7756,
      "ĠIige": 7757,
      "Guovdageainnus": 7758,
      "Ġnieiddaid": 7759,
      "Ġguovdagea": 7760,
      "Ġolusat": 7761,
      "ĠolbmÃ¡t": 7762,
      "Ġnuora": 7763,
      "Ġdaningo": 7764,
      "Ġallaskuvllas": 7765,
      "amuel": 7766,
      "Ġkommenteret": 7767,
      "oÄį": 7768,
      "uhedje": 7769,
      "rre": 7770,
      "ĠgeahÄįai": 7771,
      "Ġovdagihtii": 7772,
      "bmeb": 7773,
      "Ġalmmuhuvvon": 7774,
      "Ġbierggu": 7775,
      "Juohke": 7776,
      "ĠfÃ¡hkka": 7777,
      "ehpp": 7778,
      "Ġjuogo": 7779,
      "ĠvuoittÃ¡h": 7780,
      "jÃ¡vrris": 7781,
      "vvÃ¡": 7782,
      "ohpi": 7783,
      "ĠÄįujuhit": 7784,
      "Ġgiddagassii": 7785,
      "ĠrÃ¡hkkanan": 7786,
      "eahci": 7787,
      "ĠÃ¡vkkÃ¡stallat": 7788,
      "ĠPaltto": 7789,
      "guo": 7790,
      "ĠÃ¡imm": 7791,
      "Ġinge": 7792,
      "Ġtevdn": 7793,
      "uoÄĳaÅ¡t": 7794,
      "rievd": 7795,
      "allin": 7796,
      "Ġ1970": 7797,
      "kre": 7798,
      "ĠSmuk": 7799,
      "ĠÄįoav": 7800,
      "ddjiide": 7801,
      "ĠovttasrÃ¡Äĳiid": 7802,
      "ĠberoÅ¡tan": 7803,
      "ĠKarasjok": 7804,
      "Ġmihkke": 7805,
      "Ġdaiguin": 7806,
      "Ġgutn": 7807,
      "Ãģv": 7808,
      "ĠPiera": 7809,
      "Ġevttohas": 7810,
      "Ġjorgalan": 7811,
      "ĠGÃ¡regas": 7812,
      "nui": 7813,
      "Ġgottii": 7814,
      "ĠlÃ¡gi": 7815,
      "ĠlÃ¡giduvvui": 7816,
      "ĠhÃ¡leÅ¡tit": 7817,
      "GUOVDAGEAIDNU": 7818,
      "dieÄĳ": 7819,
      "dden": 7820,
      "ĠSilje": 7821,
      "abÃ¡l": 7822,
      "Ġbargguide": 7823,
      "Ġevttohit": 7824,
      "Ġvarra": 7825,
      "sÃ¸": 7826,
      "arra": 7827,
      "agiiguin": 7828,
      "hkki": 7829,
      "ĠdÃ¡lus": 7830,
      "Ġfinai": 7831,
      "ĠÄĮÃ¡lliidLÃ¡gÃ¡dus": 7832,
      "kst": 7833,
      "Ġmiela": 7834,
      "ĠCo": 7835,
      "ĠrÃ¡ÄĳÄĳeaddi": 7836,
      "istorjj": 7837,
      "ĠSÃ¡rÃ¡": 7838,
      "Ġbohccobierggu": 7839,
      "Ġfear": 7840,
      "olas": 7841,
      "osiidda": 7842,
      "Ã¡lli": 7843,
      "ĠÃ¡igodat": 7844,
      "ĠPettersen": 7845,
      "jal": 7846,
      "Ġliht": 7847,
      "Ġsuopmel": 7848,
      "MS": 7849,
      "Ġmeal": 7850,
      "Ġmiilla": 7851,
      "Ã¡hpÃ¡hus": 7852,
      "seth": 7853,
      "ĠduohtavuoÄĳa": 7854,
      "ng": 7855,
      "ahalai": 7856,
      "ĠMagn": 7857,
      "edovd": 7858,
      "emeannud": 7859,
      "Ġspeal": 7860,
      "ĠvÃ¡stidan": 7861,
      "Ġsuopman": 7862,
      "htuid": 7863,
      "Ġvuoddji": 7864,
      "ĠbadjelgeahÄįÄį": 7865,
      "ĠfuomÃ¡Å¡umi": 7866,
      "Ġdorjon": 7867,
      "ĠMaÅĭÅĭel": 7868,
      "ebarg": 7869,
      "Ã¡jin": 7870,
      "Ġjienaid": 7871,
      "Ġturist": 7872,
      "34": 7873,
      "mis": 7874,
      "ĠbÃ¡hkk": 7875,
      "Ġobb": 7876,
      "ussii": 7877,
      "hkku": 7878,
      "ivddus": 7879,
      "ĠFacebook": 7880,
      "ĠlÃ¡vddis": 7881,
      "Ġpersovnna": 7882,
      "Ġbeatnaga": 7883,
      "ĠÃģigÃ¡i": 7884,
      "ura": 7885,
      "vugiid": 7886,
      "Ġgeaidnu": 7887,
      "ĠAre": 7888,
      "ĠRe": 7889,
      "ĠFerte": 7890,
      "aldi": 7891,
      "ĠfÃ¡rrolaga": 7892,
      "Ã¡kk": 7893,
      "Ġgoluid": 7894,
      "Ġvulget": 7895,
      "Ġoktanaga": 7896,
      "alaÅ¡vuoÄĳa": 7897,
      "ĠrÃ¡pp": 7898,
      "ĠbeaivvÃ¡Å¡": 7899,
      "ĠÃ¡igÃ¡": 7900,
      "lÃ¡nddas": 7901,
      "Ġgoarr": 7902,
      "ĠmÃ¡nÃ¡idgÃ¡rddi": 7903,
      "Ġboazodolliid": 7904,
      "ĠRoavven": 7905,
      "posten": 7906,
      "ti": 7907,
      "Ã¡les": 7908,
      "uorra": 7909,
      "obargg": 7910,
      "Ġelekt": 7911,
      "ĠmÃ¡ÅĭggalÃ¡gan": 7912,
      "37": 7913,
      "vin": 7914,
      "vddas": 7915,
      "Ġnuoraidskuvlla": 7916,
      "ÄįÃ¡jÃ¡lmas": 7917,
      "Ã¤kkÃ¤lÃ¤": 7918,
      "AHPP": 7919,
      "Bie": 7920,
      "ĠBor": 7921,
      "asttii": 7922,
      "Ġbisseh": 7923,
      "ĠDasgo": 7924,
      "ĠsÃ¡gastallat": 7925,
      "Ġdear": 7926,
      "ĠhÃ¡mi": 7927,
      "ĠÃ¡irasat": 7928,
      "HTE": 7929,
      "ĠdÃ¡rkil": 7930,
      "ĠVuolab": 7931,
      "Ġhomm": 7932,
      "aino": 7933,
      "Ġdorjot": 7934,
      "Ġpolitihkkarat": 7935,
      "Ġleahkit": 7936,
      "jogas": 7937,
      "ggÃ¡t": 7938,
      "ĠovdÃ¡nit": 7939,
      "ĠvÃ¡idit": 7940,
      "ĠÄįovdosiid": 7941,
      "ĠvÃ¡rrepresideanta": 7942,
      "ĠÃ¡Å¡Å¡in": 7943,
      "ĠoktavuoÄĳain": 7944,
      "Ġminuhta": 7945,
      "Ġveall": 7946,
      "Ġohcet": 7947,
      "Ġgeardd": 7948,
      "Ġgirjjit": 7949,
      "iga": 7950,
      "agohtet": 7951,
      "ahki": 7952,
      "ĠvirgÃ¡d": 7953,
      "iÅ¡goahtÃ¡": 7954,
      "Ġekonomiija": 7955,
      "Ġdoallan": 7956,
      "ĠsullasaÅ¡": 7957,
      "Ġbargagoahtit": 7958,
      "ĠgÃ¡vpp": 7959,
      "Ġsoaldd": 7960,
      "Ġbuhcc": 7961,
      "ivi": 7962,
      "iina": 7963,
      "ĠHui": 7964,
      "Ġmovtta": 7965,
      "Ġvuoras": 7966,
      "iijaid": 7967,
      "ĠÄįoahkkanan": 7968,
      "Ġjienain": 7969,
      "Ġrahpan": 7970,
      "co": 7971,
      "oassi": 7972,
      "Ã¡itt": 7973,
      "Ġgeavahuvvot": 7974,
      "ĠDivttas": 7975,
      "AB": 7976,
      "mÃ¡ll": 7977,
      "agir": 7978,
      "Ġearet": 7979,
      "Ġvuosttald": 7980,
      "ĠBÃ¡kteh": 7981,
      "ÅĬ": 7982,
      "ajit": 7983,
      "ĠDÃ¡inna": 7984,
      "ihkus": 7985,
      "ĠSÃ¡medikkiin": 7986,
      "ĠbÃ¡ggu": 7987,
      "Ġliikot": 7988,
      "Gea": 7989,
      "miel": 7990,
      "ĠPolitiijat": 7991,
      "Ġluohkk": 7992,
      "Ġbuvttadit": 7993,
      "Ġoaiviliid": 7994,
      "ĠguovÅ¾Å¾a": 7995,
      "boa": 7996,
      "Ġluottaid": 7997,
      "ĠealÃ¡husaid": 7998,
      "SÃ¡pmi": 7999,
      "Ġbargamin": 8000,
      "Ġvuork": 8001,
      "Ohcej": 8002,
      "Siidu": 8003,
      "Ġseal": 8004,
      "olo": 8005,
      "amisk": 8006,
      "Ġneakt": 8007,
      "ĠvÃ¡sÃ¡husat": 8008,
      "ahahtti": 8009,
      "eÄįiel": 8010,
      "mÃ¡rkan": 8011,
      "Ġnissona": 8012,
      "oaimmaid": 8013,
      "Ġloahppa": 8014,
      "ĠdÃ¡ruiduhttin": 8015,
      "ageahÄįen": 8016,
      "GUL": 8017,
      "Ġvuotn": 8018,
      "Ġtv": 8019,
      "lÃ¡ndda": 8020,
      "ĠgÃ¡rtan": 8021,
      "ĠSÃ¡gat": 8022,
      "ĠoÄĳÄĳaÃ¡igÃ¡saÅ¡": 8023,
      "Ġsubjea": 8024,
      "Ġheakka": 8025,
      "Ġliegga": 8026,
      "ĠDieÄĳusge": 8027,
      "Ġvissis": 8028,
      "kkar": 8029,
      "ĠNAV": 8030,
      "ĠÃ¡iggut": 8031,
      "ĠvirgÃ¡i": 8032,
      "Ġoaiveg": 8033,
      "ĠProÅ¡ea": 8034,
      "ĠrumaÅ¡": 8035,
      "Ġvurdet": 8036,
      "ĠrÃ¡mi": 8037,
      "aste": 8038,
      "ĠbuÅ¡eahtta": 8039,
      "ĠnjÃ¡lmmÃ¡laÅ¡": 8040,
      "earat": 8041,
      "ĠBÃ¡l": 8042,
      "vuoÄĳad": 8043,
      "Ġmuitalusaid": 8044,
      "Ġisraell": 8045,
      "ĠÄįuojah": 8046,
      "ĠStuorra": 8047,
      "ĠdÃ¡rkkist": 8048,
      "97": 8049,
      "amen": 8050,
      "vuogit": 8051,
      "ĠGos": 8052,
      "ĠAnÃ¡ra": 8053,
      "ĠNuorat": 8054,
      "jejuvvon": 8055,
      "Lii": 8056,
      "Ġsen": 8057,
      "ÄĳÄĳaj": 8058,
      "ĠlÃ¡gidii": 8059,
      "ĠÅ¡attaÅ¡ii": 8060,
      "Ġsuomagiela": 8061,
      "Berit": 8062,
      "Ga": 8063,
      "uhusa": 8064,
      "ĠÄįohkkÃ¡": 8065,
      "politihka": 8066,
      "ikopter": 8067,
      "ĠBoazosÃ¡pmelaÄįÄįaid": 8068,
      "ĠÃģltÃ¡i": 8069,
      "):": 8070,
      "ĠLÃ¤nsman": 8071,
      "Ġdienas": 8072,
      "ĠguÄĳa": 8073,
      "ĠsmÃ¡vit": 8074,
      "aÅ¡edje": 8075,
      "Ġfok": 8076,
      "almmÃ¡t": 8077,
      "ĠvuoitÃ¡": 8078,
      "ĠÄįÃ¡jÃ¡husa": 8079,
      "rÃ¡Äĳi": 8080,
      "ĠÄįÃ¡lalaÅ¡": 8081,
      "ĠRÃ¡vdnÃ¡": 8082,
      "Ġgl": 8083,
      "Ã¡sse": 8084,
      "ĠdiÄĳii": 8085,
      "avii": 8086,
      "ĠÄįilgehus": 8087,
      "ĠgaÅ¾": 8088,
      "jadat": 8089,
      ":/": 8090,
      "Ġroahkk": 8091,
      "Ġ38": 8092,
      "ĠCar": 8093,
      "bargi": 8094,
      "eatnama": 8095,
      "Ġartihkk": 8096,
      "ĠboahtteÃ¡igi": 8097,
      "fitnodaga": 8098,
      "ĠÃģÅ¡Å¡u": 8099,
      "Ġnanus": 8100,
      "ĠNordlÃ¡nddas": 8101,
      "adeaddji": 8102,
      "uorggis": 8103,
      "Ġnissonolbmo": 8104,
      "Ġvuoitu": 8105,
      "ĠvÃ¡lddi": 8106,
      "Ġjoatkkaskuvla": 8107,
      "Ġmihttom": 8108,
      "Ã¡igeahÄįu": 8109,
      "rd": 8110,
      "ĠfÃ¡l": 8111,
      "ĠorganisaÅ¡uvnna": 8112,
      "Ã¡ige": 8113,
      "edieÄĳ": 8114,
      "una": 8115,
      "Ġbean": 8116,
      "Ġkaf": 8117,
      "Å¾Å¾u": 8118,
      "ĠgirjjÃ¡laÅ¡": 8119,
      "ĠguovddÃ¡Å¾a": 8120,
      "ĠhistorjjÃ¡s": 8121,
      "konsul": 8122,
      "Ġkoron": 8123,
      "Ġalkohola": 8124,
      "Er": 8125,
      "HÃ¡l": 8126,
      "ĠvÃ¡rres": 8127,
      "Ġbarggai": 8128,
      "ĠFinnmÃ¡rkol": 8129,
      "Ġsojahan": 8130,
      "ameahttun": 8131,
      "ĠsÃ¡mem": 8132,
      "ĠÃ¡rb": 8133,
      "rrain": 8134,
      "ĠAmerihk": 8135,
      "ĠTromssa": 8136,
      "DO": 8137,
      "VE": 8138,
      "ĠJohkam": 8139,
      "ĠnohkÃ¡": 8140,
      "ĠDagblad": 8141,
      "ĠÄįievÄįÄį": 8142,
      "ĠHÃ¸": 8143,
      "Ġskearr": 8144,
      "ĠÃ¡hÄįi": 8145,
      "aleami": 8146,
      "ĠFor": 8147,
      "Ġoahppo": 8148,
      "iijat": 8149,
      "ĠfuobmÃ¡i": 8150,
      "Ġlakt": 8151,
      "eÅ¾as": 8152,
      "Duottar": 8153,
      "gÃ¡ib": 8154,
      "udan": 8155,
      "Ġdutkama": 8156,
      "Ġuvssa": 8157,
      "Ġ>>": 8158,
      "ya": 8159,
      "uoraid": 8160,
      "urd": 8161,
      "oba": 8162,
      "ĠvÃ¡ldog": 8163,
      "ĠlassÃ¡n": 8164,
      "Ã¡ÄĳÄĳÃ¡i": 8165,
      "ĠÃ¡rvalusa": 8166,
      "2006": 8167,
      "ĠbÃ¡ikego": 8168,
      "Ġviessu": 8169,
      "wa": 8170,
      "ĠSver": 8171,
      "ĠGuokte": 8172,
      "ĠEir": 8173,
      "Ġbuoz": 8174,
      "Ġoainnuid": 8175,
      "Ġbovdejuvvon": 8176,
      "ĠbÃ¡tn": 8177,
      "ggaÅ¡t": 8178,
      "ĠGovas": 8179,
      "ĠPolit": 8180,
      "ajis": 8181,
      "Ġbieggamill": 8182,
      "ĠdigaÅ¡tallan": 8183,
      "GU": 8184,
      "epm": 8185,
      "Ġmorr": 8186,
      "are": 8187,
      "ejeaddjit": 8188,
      "ske": 8189,
      "ĠdieÄĳihuvvon": 8190,
      "ĠMÃ¡rgget": 8191,
      "Ġ?": 8192,
      "iimet": 8193,
      "ĠhÃ¡ld": 8194,
      "pma": 8195,
      "ove": 8196,
      "ĠmÃ¡tke": 8197,
      "Ġluossab": 8198,
      "Bo": 8199,
      "Nisson": 8200,
      "ĠfÃ¡hkkestaga": 8201,
      "Ġbirrasa": 8202,
      "Ġstuorit": 8203,
      "ĠboarrÃ¡sat": 8204,
      "Roald": 8205,
      "Ġme": 8206,
      "ĠGu": 8207,
      "avgil": 8208,
      "oahpah": 8209,
      "ĠhÃ¡liidii": 8210,
      "ĠdalÃ¡": 8211,
      "Ġritt": 8212,
      "Ġeanand": 8213,
      "Ġbuktet": 8214,
      "ĠÃ¡lgoÃ¡lbmogat": 8215,
      "Ġgoittotge": 8216,
      "GÃ¸ran": 8217,
      "TA": 8218,
      "ĠhÃ¡pm": 8219,
      "ĠGAL": 8220,
      "ajoavku": 8221,
      "itnodat": 8222,
      "Ġeallimii": 8223,
      "Ġgearddi": 8224,
      "Ġbadjelmear": 8225,
      "ĠgÃ¡vnnahan": 8226,
      "Ġnarkot": 8227,
      "lihttu": 8228,
      "ovdna": 8229,
      "âĢ¹": 8230,
      "ĠNedr": 8231,
      "ĠbeaÅ¡": 8232,
      "Ġbeakk": 8233,
      "ĠÃ¡Å¡Å¡iiguin": 8234,
      "Ġoahppog": 8235,
      "iemi": 8236,
      "âĢľ": 8237,
      "edjen": 8238,
      "Ġdoavtt": 8239,
      "ĠAlmm": 8240,
      "ĠvÃ¡lljejuvvui": 8241,
      "Ġfatnasa": 8242,
      "Ġsmiehttat": 8243,
      "ĠleansmÃ¡nni": 8244,
      "Ã¤kkÃ¤lÃ¤jÃ¤rvi": 8245,
      "stant": 8246,
      "SÃ¡mis": 8247,
      "Ġ2020": 8248,
      "ĠLogje": 8249,
      "ĠMuotka": 8250,
      "can": 8251,
      "atiiv": 8252,
      "ĠEam": 8253,
      "Äįuoig": 8254,
      "Ġbr": 8255,
      "ith": 8256,
      "ĠsÃ¡miin": 8257,
      "ĠAbr": 8258,
      "Ġluoit": 8259,
      "Ġdivvut": 8260,
      "Ġgaikk": 8261,
      "eastt": 8262,
      "Ġgurut": 8263,
      "Ġjoga": 8264,
      "iddo": 8265,
      "ĠgohÄįoduvvo": 8266,
      "Sihke": 8267,
      "Ã¡vjÃ¡": 8268,
      "Ġpedagog": 8269,
      "Ã¡das": 8270,
      "ĠOahppit": 8271,
      "oalu": 8272,
      "alog": 8273,
      "ĠdÃ¡lk": 8274,
      "ĠTom": 8275,
      "Ġteaksta": 8276,
      "ĠpersovnnalaÅ¡": 8277,
      "Ġprofessor": 8278,
      "Ġneahttasiiddus": 8279,
      "ĠvuorbÃ¡d": 8280,
      "iimmat": 8281,
      "Ġsam": 8282,
      "iskk": 8283,
      "ĠÄįiv": 8284,
      "ulk": 8285,
      "Ġproseass": 8286,
      "Ġliegg": 8287,
      "utoke": 8288,
      "alÃ¡dje": 8289,
      "bmet": 8290,
      "ohki": 8291,
      "Ġskihp": 8292,
      "Ġ600": 8293,
      "ĠmÃ¡nnodaga": 8294,
      "Ġveahkki": 8295,
      "Ã¡li": 8296,
      "ttus": 8297,
      "ĠBÃ¦": 8298,
      "Ġmahk": 8299,
      "Ġ37": 8300,
      "ĠÃ¡rvalus": 8301,
      "ojuvvojedje": 8302,
      "ugo": 8303,
      "aÅ¡e": 8304,
      "Ġstrateg": 8305,
      "Olu": 8306,
      "Ġseailluhit": 8307,
      "ĠoÄĳÄĳajagimÃ¡nu": 8308,
      "DAL": 8309,
      "Ġoidnen": 8310,
      "ĠdigitÃ¡la": 8311,
      "ĠmÃ¡ilbmi": 8312,
      "ĠLyngstad": 8313,
      "ĠlÃ¡hÄįit": 8314,
      "Ã¼": 8315,
      "ĠposiÅ¡": 8316,
      "ĠUnn": 8317,
      "Ġevttohusaid": 8318,
      "ĠHeatta": 8319,
      "ĠFjellheim": 8320,
      "Ã¡ff": 8321,
      "ĠeisevÃ¡ld": 8322,
      "ĠgÃ¡httet": 8323,
      "Ġvuoruhan": 8324,
      "Ġbivdu": 8325,
      "Ġ2013": 8326,
      "Ġjuhkan": 8327,
      "ĠguovÅ¾a": 8328,
      "Ġdulkot": 8329,
      "Ġguovdageaidn": 8330,
      "JU": 8331,
      "lÃ¸": 8332,
      "ĠÄįohk": 8333,
      "ktasaÅ¡": 8334,
      "ĠII": 8335,
      "Ġevttohuvvon": 8336,
      "EADDJ": 8337,
      "Ġvuodjin": 8338,
      "ĠdalÃ¡n": 8339,
      "Sotnab": 8340,
      "bie": 8341,
      "ĠÃ¡m": 8342,
      "agaiguin": 8343,
      "ĠJor": 8344,
      "Ġsuohtt": 8345,
      "ĠNuppi": 8346,
      "ĠKristin": 8347,
      "Ġriikkain": 8348,
      "ĠÄįiekÄįamiid": 8349,
      "Mikkel": 8350,
      "Muhtin": 8351,
      "jos": 8352,
      "Ġgieht": 8353,
      "ĠAnita": 8354,
      "ĠJuste": 8355,
      "NE": 8356,
      "Ã¡rog": 8357,
      "estrand": 8358,
      "aldagat": 8359,
      "rÃ¡vdn": 8360,
      "agielat": 8361,
      "astivra": 8362,
      "ideo": 8363,
      "ĠdÃ¡lvet": 8364,
      "Ġdietnasa": 8365,
      "52": 8366,
      "fjord": 8367,
      "skuvllas": 8368,
      "Ġolahan": 8369,
      "Ġstohk": 8370,
      "eallima": 8371,
      "ĠÄĮuo": 8372,
      "ibeke": 8373,
      "Ġfitnet": 8374,
      "Ġruovttub": 8375,
      "ĠviidÃ¡set": 8376,
      "ĠvuollÃ¡iÄįÃ¡ll": 8377,
      "isbeth": 8378,
      "bol": 8379,
      "uohtt": 8380,
      "Ã¡rbev": 8381,
      "ĠRu": 8382,
      "Ġovddasta": 8383,
      "ĠnÃ¡kc": 8384,
      "ĠfÃ¡rren": 8385,
      "Ġmuoraid": 8386,
      "eaÅ¡ttirgilvv": 8387,
      "aÅ¡uvvan": 8388,
      "Ġkonkre": 8389,
      "ĠÄįalmmit": 8390,
      "Ġmassit": 8391,
      "Ġbuhtadus": 8392,
      "proÅ¡eavtt": 8393,
      "eahkki": 8394,
      "Danne": 8395,
      "Ġmihttu": 8396,
      "ggon": 8397,
      "elasat": 8398,
      "ĠJagi": 8399,
      "ihkkel": 8400,
      "ĠÄįuohpp": 8401,
      "ĠieÅ¡alddis": 8402,
      "ĠOlu": 8403,
      "atnja": 8404,
      "ĠimaÅ¡ta": 8405,
      "arm": 8406,
      "ĠmaÅĭemuÅ¡": 8407,
      "ĠmaÅĭÅĭit": 8408,
      "Ġgolbm": 8409,
      "iehtadus": 8410,
      "GET": 8411,
      "Ġoasit": 8412,
      "ager": 8413,
      "ĠMika": 8414,
      "ĠÃģilu": 8415,
      "ĠmÃ¡nÃ¡iguin": 8416,
      "Ġduohtan": 8417,
      "Ġtab": 8418,
      "ĠbearraÅ¡is": 8419,
      "Tor": 8420,
      "ĠDÃ¡b": 8421,
      "Ġfylk": 8422,
      "Ġgeavaheapmi": 8423,
      "Ġcealkit": 8424,
      "Ġartisttat": 8425,
      "Preassagovva": 8426,
      "KPK": 8427,
      "che": 8428,
      "ihis": 8429,
      "atter": 8430,
      "astte": 8431,
      "Ġheargeg": 8432,
      "ĠFertet": 8433,
      "Ġes": 8434,
      "ĠgahÄį": 8435,
      "itne": 8436,
      "ĠRuonÃ¡": 8437,
      "Ġserve": 8438,
      "ĠÄįoahkkanit": 8439,
      "riddj": 8440,
      "ĠÄįiekÄįama": 8441,
      "Ġsivah": 8442,
      "UHT": 8443,
      "Ġdieid": 8444,
      "Ġduvd": 8445,
      "Ġboahtin": 8446,
      "Badje": 8447,
      "dna": 8448,
      "Ġut": 8449,
      "âĢ©": 8450,
      "Ġbargod": 8451,
      "ĠvÃ¡ruhit": 8452,
      "Ġbuohccev": 8453,
      "ĠSamuel": 8454,
      "Ġfra": 8455,
      "ĠLise": 8456,
      "Ġstat": 8457,
      "Ã¡hkis": 8458,
      "ĠbÃ¡lkkÃ¡": 8459,
      "ĠElisabeth": 8460,
      "Ġbiddjo": 8461,
      "alogi": 8462,
      "ilie": 8463,
      "Ġsuohkaniid": 8464,
      "ĠhÃ¡lddaÅ¡ang": 8465,
      "ĠfuomÃ¡Å¡an": 8466,
      "ĠgÃ¡vpogii": 8467,
      "Ġbuhtis": 8468,
      "Br": 8469,
      "Ġbot": 8470,
      "agrÃ¡": 8471,
      "ĠEatn": 8472,
      "ĠÃ¡rktalaÅ¡": 8473,
      "uhttima": 8474,
      "etter": 8475,
      "ĠGirk": 8476,
      "ĠÄįuojahan": 8477,
      "ĠfÃ¡gas": 8478,
      "Romssas": 8479,
      "ivuohta": 8480,
      "ĠGeass": 8481,
      "ĠLedje": 8482,
      "Ġgoabbat": 8483,
      "ĠErenoamÃ¡Å¾it": 8484,
      "ĠagÃ¡laÅ¡": 8485,
      "Ġpositiiva": 8486,
      "ĠMerete": 8487,
      "eahp": 8488,
      "uhÃ¡t": 8489,
      "Ã¡hki": 8490,
      "ÄĮuo": 8491,
      "ĠberoÅ¡tumiid": 8492,
      "NÃ¡": 8493,
      "ĠRein": 8494,
      "Ã¡htat": 8495,
      "Ġbissut": 8496,
      "ija": 8497,
      "Ġbalus": 8498,
      "aÅ¡in": 8499,
      "Ã¡rkk": 8500,
      "Ã¡hkÃ¡i": 8501,
      "mol": 8502,
      "Ġsisttis": 8503,
      "ĠSÃ¡v": 8504,
      "ĠlÃ¡gÃ¡dus": 8505,
      "ĠrievdÃ¡": 8506,
      "Olbmot": 8507,
      "oaffar": 8508,
      "Ġguolli": 8509,
      "Ġgilvvut": 8510,
      "StÃ¡hta": 8511,
      "Ġgazz": 8512,
      "Ġbilk": 8513,
      "ĠPaulsen": 8514,
      "ĠHÃ¡mmÃ¡rfea": 8515,
      "utokeino": 8516,
      "geav": 8517,
      "Ġbohc": 8518,
      "ilda": 8519,
      "ĠÃ¡itt": 8520,
      "Ġ34": 8521,
      "minist": 8522,
      "Ġbirrasiid": 8523,
      "BO": 8524,
      "Ã¡ma": 8525,
      "uhat": 8526,
      "Ġduon": 8527,
      "Ġiht": 8528,
      "Ġsuoll": 8529,
      "Ġsearvvit": 8530,
      "ĠThomassen": 8531,
      "ĠMalene": 8532,
      "ddan": 8533,
      "ohoavda": 8534,
      "ĠHell": 8535,
      "isttaide": 8536,
      "ĠNordlÃ¡ndda": 8537,
      "Ġoarjj": 8538,
      "ĠÃ¡hp": 8539,
      "ĠjÃ¡hkku": 8540,
      "Ġovdanbuktit": 8541,
      "Ġmob": 8542,
      "eld": 8543,
      "ĠOdne": 8544,
      "Ġveara": 8545,
      "Ġoaivilis": 8546,
      "Ġovddasteaddji": 8547,
      "MÃ¡ze": 8548,
      "ĠGeahÄįÄį": 8549,
      "ĠNTB": 8550,
      "Ã¡idu": 8551,
      "eanu": 8552,
      "Ġveagal": 8553,
      "Ġ02": 8554,
      "ĠÃ¡lggahii": 8555,
      "oavdda": 8556,
      "Kl": 8557,
      "jÃ¡vrri": 8558,
      "arÃ¡ÄĳÄĳi": 8559,
      "ĠristtalaÅ¡": 8560,
      "allen": 8561,
      "Ġka": 8562,
      "ĠOvllÃ¡": 8563,
      "Ġduostta": 8564,
      "Ã¡Å¾in": 8565,
      "ĠÄįoaggit": 8566,
      "ĠbÃ¡lvalusaid": 8567,
      "Trom": 8568,
      "Ġguvtt": 8569,
      "ĠAg": 8570,
      "Ã¡ilmmis": 8571,
      "ĠdieÄĳihii": 8572,
      "ĠEanandoall": 8573,
      "oÅ¡iehtadus": 8574,
      "ĠDeatnu": 8575,
      "Ã¡miin": 8576,
      "ĠvÃ¡immu": 8577,
      "Ġlahkon": 8578,
      "Ġorohagas": 8579,
      "Ġvaras": 8580,
      "ĠfuobmÃ¡n": 8581,
      "Ġipmirdan": 8582,
      "Loga": 8583,
      "nnot": 8584,
      "ĠheaÄĳ": 8585,
      "Ġheastt": 8586,
      "ĠnÃ¡itt": 8587,
      "ĠÄįujuhus": 8588,
      "Ġoaivvildan": 8589,
      "ĠÂ§": 8590,
      "Ġdustet": 8591,
      "dis": 8592,
      "mat": 8593,
      "ĠÃ¡Å¡Å¡emeannud": 8594,
      "attis": 8595,
      "Ġnappo": 8596,
      "Ġvulge": 8597,
      "Ġbeahtahallan": 8598,
      "://": 8599,
      "Eal": 8600,
      "Kultur": 8601,
      "uÅ¡tit": 8602,
      "Ġhuksejuvvon": 8603,
      "ĠgÃ¡vnnahit": 8604,
      "ĠvuoiÅĭÅĭalaÅ¡": 8605,
      "Sp": 8606,
      "oand": 8607,
      "ĠsÃ¡men": 8608,
      "ĠhÃ¡lidan": 8609,
      "Ġeambo": 8610,
      "lohkui": 8611,
      "ivÅ¡Å¡Ã¡r": 8612,
      "ĠeÅĭgelas": 8613,
      "Ġligg": 8614,
      "ĠmÃ¡Å¡": 8615,
      "ĠbÃ¡i": 8616,
      "ealmmÃ¡i": 8617,
      "Ġek": 8618,
      "eaivvit": 8619,
      "Ġ77": 8620,
      "Ġ1996": 8621,
      "ĠRiikkasearvvi": 8622,
      "ĠheivvolaÅ¡": 8623,
      "Dearvv": 8624,
      "elt": 8625,
      "logal": 8626,
      "Ġdeavdit": 8627,
      "Finnmark": 8628,
      "Ã¡sahus": 8629,
      "ajiid": 8630,
      "Ġgullon": 8631,
      "ĠalmmÃ¡": 8632,
      "bagadus": 8633,
      "Ġaut": 8634,
      "Ã¡hit": 8635,
      "asse": 8636,
      "ĠFinn": 8637,
      "bargguid": 8638,
      "Ġsuoma": 8639,
      "ĠoppalaÅ¡": 8640,
      "guovddÃ¡Å¾a": 8641,
      "Ġdoaimmain": 8642,
      "Ġbohccuiguin": 8643,
      "innmar": 8644,
      "zet": 8645,
      "estan": 8646,
      "Ġjoavkkuid": 8647,
      "Ġjearran": 8648,
      "Ġrastt": 8649,
      "Ġgukt": 8650,
      "Ġspeadj": 8651,
      "Ġcelk": 8652,
      "Ġjuhkat": 8653,
      "Ġrehketdo": 8654,
      "GÃ¡i": 8655,
      "Ã¡nas": 8656,
      "Ġgeaidda": 8657,
      "ĠJensen": 8658,
      "Ġheajut": 8659,
      "ggai": 8660,
      "ĠMeahcc": 8661,
      "olmmoÅ¾in": 8662,
      "ĠJuda": 8663,
      "Ġnuorain": 8664,
      "Ã¡nnÃ¡": 8665,
      "Ġmuos": 8666,
      "ĠBrita": 8667,
      "ĠRobert": 8668,
      "ĠlÃ¡Å¡mm": 8669,
      "rud": 8670,
      "ĠMihkkal": 8671,
      "ssaide": 8672,
      "uÅ¡Å¡Ã¡": 8673,
      "Ġmoht": 8674,
      "Ġvierr": 8675,
      "Ġgeassi": 8676,
      "ĠproÅ¡eavttas": 8677,
      "jÃ¸rg": 8678,
      "ĠVuorkÃ¡govva": 8679,
      "ĠmÃ¡tkÃ¡i": 8680,
      "Ġdohpp": 8681,
      "ĠbÃ¡b": 8682,
      "els": 8683,
      "egoahtit": 8684,
      "ĠFyl": 8685,
      "Ġseast": 8686,
      "ĠvÃ¡lljejit": 8687,
      "nnÃ¸ve": 8688,
      "idar": 8689,
      "ietn": 8690,
      "ĠMÃ¡Åĭ": 8691,
      "ĠHot": 8692,
      "ĠOhc": 8693,
      "Ġluodda": 8694,
      "lag": 8695,
      "entti": 8696,
      "ahas": 8697,
      "Ġfitne": 8698,
      "Ġ39": 8699,
      "ĠDaÄĳi": 8700,
      "Ġdievddut": 8701,
      "adoalli": 8702,
      "ĠipmÃ¡rdusa": 8703,
      "MM": 8704,
      "east": 8705,
      "one": 8706,
      "imiidda": 8707,
      "Ġborran": 8708,
      "Ã¡vvardaga": 8709,
      "Ġruovttug": 8710,
      "Ġdola": 8711,
      "bargguin": 8712,
      "ĠdÃ¡htton": 8713,
      "ĠsÃ¡gastallan": 8714,
      "Ã¡lesnuor": 8715,
      "Ġrek": 8716,
      "Ġlohke": 8717,
      "Ġnjur": 8718,
      "Ġske": 8719,
      "ĠeallÃ¡": 8720,
      "ĠfuomÃ¡Å¡it": 8721,
      "ĠjuogalÃ¡gan": 8722,
      "Ġluovos": 8723,
      "vÃ¡l": 8724,
      "http": 8725,
      "ĠgÃ¡htt": 8726,
      "allame": 8727,
      "ĠgÃ¡vnnai": 8728,
      "Ġdahkkot": 8729,
      "ĠerenomÃ¡Å¾it": 8730,
      "Th": 8731,
      "ĠOrru": 8732,
      "obiid": 8733,
      "ĠvÃ¡ldodoaimm": 8734,
      "Ġnuoramus": 8735,
      "ĠÃ¡ssÃ¡": 8736,
      "Ġgeigii": 8737,
      "Ġdoaibmabij": 8738,
      "Riddu": 8739,
      "vid": 8740,
      "ogo": 8741,
      "ĠlÃ¡ven": 8742,
      "Ġboazodoal": 8743,
      "ĠArild": 8744,
      "2005": 8745,
      "ĠDetnui": 8746,
      "OS": 8747,
      "girjj": 8748,
      "angilvv": 8749,
      "ĠMusihkka": 8750,
      "ĠgillÃ¡t": 8751,
      "ĠgÃ¡djut": 8752,
      "Ã¥sÃ¸": 8753,
      "It": 8754,
      "oÅ¾a": 8755,
      "posiÅ¡": 8756,
      "unen": 8757,
      "uÄĳa": 8758,
      "ĠÄįilgej": 8759,
      "ĠÄįÃ¡jÃ¡lmasa": 8760,
      "Ġvanh": 8761,
      "Ã¡ni": 8762,
      "Ġbeannot": 8763,
      "ĠorganisaÅ¡uvdna": 8764,
      "eakt": 8765,
      "ĠnaÅ¡unÃ¡la": 8766,
      "Ġbellodagat": 8767,
      "Eanet": 8768,
      "Ġcahkk": 8769,
      "Ġ09": 8770,
      "ĠreaÅ¡": 8771,
      "uodjalusa": 8772,
      "Ġjulggiid": 8773,
      "Ġkvalitehta": 8774,
      "Ġlahttu": 8775,
      "Ġbos": 8776,
      "Ġoidne": 8777,
      "ilat": 8778,
      "Ġluopm": 8779,
      "Ġtii": 8780,
      "ĠHelene": 8781,
      "RE": 8782,
      "ĠOtn": 8783,
      "ĠrÃ¡jÃ¡": 8784,
      "Ġfitnodagaid": 8785,
      "Ġdoarjagiid": 8786,
      "uolggadusat": 8787,
      "yv": 8788,
      "ĠlÃ¡ib": 8789,
      "ĠOAHPP": 8790,
      "ĠohcÃ¡": 8791,
      "ĠbÃ¡rt": 8792,
      "Ġ1800": 8793,
      "Ġskuvlam": 8794,
      "Vuoi": 8795,
      "Ġoahpahusas": 8796,
      "Ġ1980": 8797,
      "ĠVÃ¡rjjat": 8798,
      "ĠPo": 8799,
      "ĠatnÃ¡n": 8800,
      "Ġnagod": 8801,
      "ĠriegÃ¡dii": 8802,
      "ĠLeavnnja": 8803,
      "ĠoassevÃ¡ldit": 8804,
      "Carl": 8805,
      "behtet": 8806,
      "tat": 8807,
      "Ġgihtii": 8808,
      "ĠStor": 8809,
      "Ġsuohkanstivra": 8810,
      "Ġregistrerejuvvon": 8811,
      "ĠgirjerÃ¡dj": 8812,
      "Soai": 8813,
      "Ġlund": 8814,
      "iiga": 8815,
      "Ġoapm": 8816,
      "Ġterr": 8817,
      "Ġjohtol": 8818,
      "ĠÃģÅ¡Å¡i": 8819,
      "Fr": 8820,
      "gir": 8821,
      "ĠNÃ¤kkÃ¤lÃ¤jÃ¤rvi": 8822,
      "ĠLisbeth": 8823,
      "Ġmeahcces": 8824,
      "ĠvuoiÅĭÅĭastit": 8825,
      "ukses": 8826,
      "ĠleansmÃ¡nne": 8827,
      "Gaskav": 8828,
      "ĠSÃ¡vv": 8829,
      "ĠGull": 8830,
      "vttÃ¡": 8831,
      "ĠsÃ¡pmelaÄįÄįa": 8832,
      "Ġdovdan": 8833,
      "ĠovdÃ¡nahttin": 8834,
      "ĠteknihkalaÅ¡": 8835,
      "100": 8836,
      "oahpaheaddji": 8837,
      "ĠÃģlggos": 8838,
      "ĠVuoÄĳÄĳ": 8839,
      "Ġmeahcce": 8840,
      "ĠrÃ¡fis": 8841,
      "Ġaktiv": 8842,
      "Ġovddasteaddjit": 8843,
      "Ġmealgat": 8844,
      "dÃ¡n": 8845,
      "ĠGaino": 8846,
      "Ġbeavd": 8847,
      "Ã¡Å¡Å¡it": 8848,
      "ĠÄįilgen": 8849,
      "ĠHelga": 8850,
      "Ġgeasuhit": 8851,
      "ĠTromssas": 8852,
      "akÄį": 8853,
      "ahuvvan": 8854,
      "ddjet": 8855,
      "Ġmollii": 8856,
      "Ġdujiid": 8857,
      "iÅ¡uvnnas": 8858,
      "ĠeahpeÄįiel": 8859,
      "BeaivvÃ¡Å¡": 8860,
      "Norg": 8861,
      "Ġagis": 8862,
      "Ġbens": 8863,
      "ĠSÃ¡megiel": 8864,
      "ĠguolÃ¡stan": 8865,
      "FF": 8866,
      "Ġlin": 8867,
      "oni": 8868,
      "ĠvuovdÃ¡n": 8869,
      "ĠguoÄĳÄĳÃ¡n": 8870,
      "OH": 8871,
      "ĠgÃ¡ibiduvvo": 8872,
      "Ġjienastan": 8873,
      "vuodjima": 8874,
      "Ġgalled": 8875,
      "Ġsivdn": 8876,
      "ĠÄįÃ¡bbÃ¡t": 8877,
      "GULDAL": 8878,
      "Dol": 8879,
      "ildit": 8880,
      "utkit": 8881,
      "Ġseastit": 8882,
      "Ġveahkeh": 8883,
      "ĠjoÄĳihan": 8884,
      "irektorÃ¡htta": 8885,
      "rievtti": 8886,
      "Cl": 8887,
      "Ġfun": 8888,
      "ĠeaÅĭg": 8889,
      "ĠCop": 8890,
      "ĠgoabbÃ¡": 8891,
      "anjas": 8892,
      "ĠHolmestrand": 8893,
      "Ġstipeandda": 8894,
      "Kon": 8895,
      "tege": 8896,
      "agur": 8897,
      "ĠsÃ¡hkk": 8898,
      "ĠAb": 8899,
      "ihkkii": 8900,
      "Ã¡htaid": 8901,
      "ĠInd": 8902,
      "Ġdivtte": 8903,
      "Ġalmmuhuvvui": 8904,
      "ttai": 8905,
      "iidii": 8906,
      "Ġduottar": 8907,
      "Ġdovddai": 8908,
      "ehter": 8909,
      "Ġmuorra": 8910,
      "ĠkÃ¡rt": 8911,
      "Ġagib": 8912,
      "Am": 8913,
      "Fylkk": 8914,
      "akt": 8915,
      "ubb": 8916,
      "ĠHeand": 8917,
      "Ġborgg": 8918,
      "Ġproseanta": 8919,
      "ĠjÃ¡hkkÃ¡n": 8920,
      "Ġgaskkal": 8921,
      "Ġguv": 8922,
      "ddes": 8923,
      "Ġovttain": 8924,
      "ĠÄĮoahkk": 8925,
      "ĠÃ¡vkkÃ¡laÅ¡": 8926,
      "ĠVaikke": 8927,
      "aÅ¡an": 8928,
      "ĠBivd": 8929,
      "ĠAHTE": 8930,
      "ĠRomsii": 8931,
      "ĠplÃ¡net": 8932,
      "yright": 8933,
      "Ġluosaid": 8934,
      "VTT": 8935,
      "ĠleÅ¡": 8936,
      "elv": 8937,
      "Ġgeavai": 8938,
      "ĠâĢ¹": 8939,
      "Ã¡vdegoddÃ¡i": 8940,
      "ĠsÃ¡niin": 8941,
      "ĠÃ¡vÅ¾Å¾uhan": 8942,
      "ĠgaÅ¾aldaga": 8943,
      "ĠNedrejord": 8944,
      "Som": 8945,
      "fÃ¡g": 8946,
      "vvas": 8947,
      "ĠMÃ¥sÃ¸": 8948,
      "isttus": 8949,
      "Ġ2012": 8950,
      "ĠÃ¡sahusat": 8951,
      "Ġmerkejuvvon": 8952,
      "43": 8953,
      "ĠNew": 8954,
      "Ġteavstta": 8955,
      "Ġeahkes": 8956,
      "ĠberoÅ¡keahttÃ¡": 8957,
      "ĠnÃ¡s": 8958,
      "Ġhadd": 8959,
      "ĠfÃ¡": 8960,
      "abir": 8961,
      "Ġint": 8962,
      "istti": 8963,
      "ehkos": 8964,
      "irektev": 8965,
      "Ġvielja": 8966,
      "Ġlundui": 8967,
      "lÃ¡v": 8968,
      "ets": 8969,
      "Ã¡niin": 8970,
      "Ġmearas": 8971,
      "Ġbadjelii": 8972,
      "Ġartista": 8973,
      "ĠÃĺr": 8974,
      "ĠbuÅ¡eahta": 8975,
      "Ġrihkkon": 8976,
      "mÃ¡": 8977,
      "ÄįÄįaid": 8978,
      "osaÄįÄįat": 8979,
      "Ã¡htor": 8980,
      "ĠgÃ¡rtÃ¡": 8981,
      "Ġmeara": 8982,
      "Ġ1994": 8983,
      "ĠrÃ¡hkisvuoÄĳa": 8984,
      "uhkes": 8985,
      "ĠCopyright": 8986,
      "iillas": 8987,
      "uheami": 8988,
      "Ġbargun": 8989,
      "kuvllat": 8990,
      "ĠieÅ¡do": 8991,
      "lÃ¡na": 8992,
      "ĠovdÃ¡neapmi": 8993,
      "kÅ¡un": 8994,
      "2007": 8995,
      "ĠfÃ¡laldagat": 8996,
      "mmer": 8997,
      "ĠRomsa": 8998,
      "Ġgiddet": 8999,
      "Ġstoahkat": 9000,
      "nen": 9001,
      "oi": 9002,
      "rag": 9003,
      "Ġlistu": 9004,
      "ĠJA": 9005,
      "ĠÃ¡lohii": 9006,
      "Ġriidduid": 9007,
      "ĠplÃ¡nat": 9008,
      "ĠhÃ¡bmet": 9009,
      "fÃ¡laldaga": 9010,
      "alÃ¡vdegoddi": 9011,
      "Ġne": 9012,
      "Ġnamuhit": 9013,
      "2008": 9014,
      "Ġoamast": 9015,
      "Ġgeavvat": 9016,
      "eannu": 9017,
      "Ġvuvdet": 9018,
      "Ġopmodat": 9019,
      "ĠdÃ¡lveoroh": 9020,
      "Ġgeasseoroh": 9021,
      "sit": 9022,
      "Ġdattege": 9023,
      "Ġjovss": 9024,
      "Ġjuoigi": 9025,
      "Ġeatnamiidda": 9026,
      "ĠanÃ¡r": 9027,
      "eahkeda": 9028,
      "Ġgeahpedit": 9029,
      "Juovl": 9030,
      "Ġbohk": 9031,
      "ĠReid": 9032,
      "ĠgeahÄįÄįit": 9033,
      "Ġfitnodagas": 9034,
      "adikki": 9035,
      "Ġloahpa": 9036,
      "ĠillÃ¡": 9037,
      "KÃ¡rÃ¡Å¡jogas": 9038,
      "Nubbi": 9039,
      "Ġdovddusin": 9040,
      "Ġduopmost": 9041,
      "ĠJÃ¸rn": 9042,
      "ĠDavid": 9043,
      "VÃ¡ld": 9044,
      "issa": 9045,
      "iska": 9046,
      "Ġvuovtt": 9047,
      "Ġvuoigg": 9048,
      "okÃ¡la": 9049,
      "Ġveahkeha": 9050,
      "njÃ¡rga": 9051,
      "Ġdeaivat": 9052,
      "ĠOahpahus": 9053,
      "Ġdes": 9054,
      "oha": 9055,
      "Ġkven": 9056,
      "Å¾Å¾on": 9057,
      "ĠgÃ¡vcc": 9058,
      "ĠbisÃ¡nan": 9059,
      "Div": 9060,
      "RÃ¡ÄĳÄĳehus": 9061,
      "gren": 9062,
      "eaddje": 9063,
      "Ġbart": 9064,
      "ĠdieÄĳÃ¡t": 9065,
      "Ġstivren": 9066,
      "ĠÅ¡attuid": 9067,
      "Ġruhtadit": 9068,
      "utnii": 9069,
      "eaiggÃ¡diid": 9070,
      "Ġvuhtto": 9071,
      "Eat": 9072,
      "ĠMikal": 9073,
      "Ġovttat": 9074,
      "ĠMaria": 9075,
      "ĠgÃ¡ibÃ¡dusat": 9076,
      "Ġbuvttadan": 9077,
      "ĠÃ¡sahuvvui": 9078,
      "Ġoaggut": 9079,
      "Ġoahpponeavvuid": 9080,
      "Ã¡Åĭgu": 9081,
      "pt": 9082,
      "alÃ¡ga": 9083,
      "astallat": 9084,
      "ĠTel": 9085,
      "Ġ800": 9086,
      "ovttas": 9087,
      "ĠGeav": 9088,
      "ĠValÃ¡Å¡tallan": 9089,
      "ĠnissonolmmoÅ¡": 9090,
      "Ã¡ddÃ¡i": 9091,
      "ĠhÃ¡lddaÅ¡eami": 9092,
      "RuoÅ§a": 9093,
      "haug": 9094,
      "Ġmovttiidahttit": 9095,
      "ĠStuorradikki": 9096,
      "ĠTryg": 9097,
      "59": 9098,
      "iÄĳ": 9099,
      "eres": 9100,
      "eliid": 9101,
      "Ġgielain": 9102,
      "ĠmuoÄĳuid": 9103,
      "Ġane": 9104,
      "Ġnuppes": 9105,
      "Ġfinadit": 9106,
      "Ġduodji": 9107,
      ".\"": 9108,
      "Giell": 9109,
      "agiella": 9110,
      "Ġnog": 9111,
      "Ġrel": 9112,
      "eland": 9113,
      "Ġleige": 9114,
      "Ġale": 9115,
      "ĠlÃ¡gidan": 9116,
      "ĠUN": 9117,
      "Ġmusihkain": 9118,
      "ĠboahtteÃ¡igÃ¡i": 9119,
      "ĠmÃ¡ksÃ¡n": 9120,
      "ĠÃ¡sahuvvon": 9121,
      "ĠBritt": 9122,
      "Ġviiddidit": 9123,
      "Ġnjiedjan": 9124,
      "geass": 9125,
      "ern": 9126,
      "ĠMor": 9127,
      "Ã¡sti": 9128,
      "uÄĳat": 9129,
      "ĠÃģlgoÃ¡l": 9130,
      "Ġnagoda": 9131,
      "Ġilludan": 9132,
      "ĠJohttisÃ¡pmelaÄįÄįaid": 9133,
      "ĠMagnus": 9134,
      "HÃ¦tta": 9135,
      "ĠgÃ¡lv": 9136,
[...]
